<unk>	0
<s>	0
</s>	0
<pad>	0
<0x00>	0
<0x01>	0
<0x02>	0
<0x03>	0
<0x04>	0
<0x05>	0
<0x06>	0
<0x07>	0
<0x08>	0
<0x09>	0
<0x0A>	0
<0x0B>	0
<0x0C>	0
<0x0D>	0
<0x0E>	0
<0x0F>	0
<0x10>	0
<0x11>	0
<0x12>	0
<0x13>	0
<0x14>	0
<0x15>	0
<0x16>	0
<0x17>	0
<0x18>	0
<0x19>	0
<0x1A>	0
<0x1B>	0
<0x1C>	0
<0x1D>	0
<0x1E>	0
<0x1F>	0
<0x20>	0
<0x21>	0
<0x22>	0
<0x23>	0
<0x24>	0
<0x25>	0
<0x26>	0
<0x27>	0
<0x28>	0
<0x29>	0
<0x2A>	0
<0x2B>	0
<0x2C>	0
<0x2D>	0
<0x2E>	0
<0x2F>	0
<0x30>	0
<0x31>	0
<0x32>	0
<0x33>	0
<0x34>	0
<0x35>	0
<0x36>	0
<0x37>	0
<0x38>	0
<0x39>	0
<0x3A>	0
<0x3B>	0
<0x3C>	0
<0x3D>	0
<0x3E>	0
<0x3F>	0
<0x40>	0
<0x41>	0
<0x42>	0
<0x43>	0
<0x44>	0
<0x45>	0
<0x46>	0
<0x47>	0
<0x48>	0
<0x49>	0
<0x4A>	0
<0x4B>	0
<0x4C>	0
<0x4D>	0
<0x4E>	0
<0x4F>	0
<0x50>	0
<0x51>	0
<0x52>	0
<0x53>	0
<0x54>	0
<0x55>	0
<0x56>	0
<0x57>	0
<0x58>	0
<0x59>	0
<0x5A>	0
<0x5B>	0
<0x5C>	0
<0x5D>	0
<0x5E>	0
<0x5F>	0
<0x60>	0
<0x61>	0
<0x62>	0
<0x63>	0
<0x64>	0
<0x65>	0
<0x66>	0
<0x67>	0
<0x68>	0
<0x69>	0
<0x6A>	0
<0x6B>	0
<0x6C>	0
<0x6D>	0
<0x6E>	0
<0x6F>	0
<0x70>	0
<0x71>	0
<0x72>	0
<0x73>	0
<0x74>	0
<0x75>	0
<0x76>	0
<0x77>	0
<0x78>	0
<0x79>	0
<0x7A>	0
<0x7B>	0
<0x7C>	0
<0x7D>	0
<0x7E>	0
<0x7F>	0
<0x80>	0
<0x81>	0
<0x82>	0
<0x83>	0
<0x84>	0
<0x85>	0
<0x86>	0
<0x87>	0
<0x88>	0
<0x89>	0
<0x8A>	0
<0x8B>	0
<0x8C>	0
<0x8D>	0
<0x8E>	0
<0x8F>	0
<0x90>	0
<0x91>	0
<0x92>	0
<0x93>	0
<0x94>	0
<0x95>	0
<0x96>	0
<0x97>	0
<0x98>	0
<0x99>	0
<0x9A>	0
<0x9B>	0
<0x9C>	0
<0x9D>	0
<0x9E>	0
<0x9F>	0
<0xA0>	0
<0xA1>	0
<0xA2>	0
<0xA3>	0
<0xA4>	0
<0xA5>	0
<0xA6>	0
<0xA7>	0
<0xA8>	0
<0xA9>	0
<0xAA>	0
<0xAB>	0
<0xAC>	0
<0xAD>	0
<0xAE>	0
<0xAF>	0
<0xB0>	0
<0xB1>	0
<0xB2>	0
<0xB3>	0
<0xB4>	0
<0xB5>	0
<0xB6>	0
<0xB7>	0
<0xB8>	0
<0xB9>	0
<0xBA>	0
<0xBB>	0
<0xBC>	0
<0xBD>	0
<0xBE>	0
<0xBF>	0
<0xC0>	0
<0xC1>	0
<0xC2>	0
<0xC3>	0
<0xC4>	0
<0xC5>	0
<0xC6>	0
<0xC7>	0
<0xC8>	0
<0xC9>	0
<0xCA>	0
<0xCB>	0
<0xCC>	0
<0xCD>	0
<0xCE>	0
<0xCF>	0
<0xD0>	0
<0xD1>	0
<0xD2>	0
<0xD3>	0
<0xD4>	0
<0xD5>	0
<0xD6>	0
<0xD7>	0
<0xD8>	0
<0xD9>	0
<0xDA>	0
<0xDB>	0
<0xDC>	0
<0xDD>	0
<0xDE>	0
<0xDF>	0
<0xE0>	0
<0xE1>	0
<0xE2>	0
<0xE3>	0
<0xE4>	0
<0xE5>	0
<0xE6>	0
<0xE7>	0
<0xE8>	0
<0xE9>	0
<0xEA>	0
<0xEB>	0
<0xEC>	0
<0xED>	0
<0xEE>	0
<0xEF>	0
<0xF0>	0
<0xF1>	0
<0xF2>	0
<0xF3>	0
<0xF4>	0
<0xF5>	0
<0xF6>	0
<0xF7>	0
<0xF8>	0
<0xF9>	0
<0xFA>	0
<0xFB>	0
<0xFC>	0
<0xFD>	0
<0xFE>	0
<0xFF>	0
▁t	-0
▁a	-1
he	-2
in	-3
re	-4
▁the	-5
on	-6
er	-7
▁s	-8
▁w	-9
at	-10
▁o	-11
en	-12
▁c	-13
it	-14
is	-15
an	-16
or	-17
▁b	-18
es	-19
ed	-20
▁f	-21
ing	-22
▁p	-23
ou	-24
▁an	-25
▁to	-26
al	-27
ar	-28
▁in	-29
▁m	-30
▁of	-31
▁h	-32
▁d	-33
as	-34
▁and	-35
ic	-36
▁th	-37
le	-38
om	-39
ion	-40
ent	-41
ll	-42
▁T	-43
▁n	-44
▁l	-45
▁re	-46
st	-47
ve	-48
ly	-49
▁e	-50
ro	-51
▁g	-52
▁be	-53
id	-54
▁I	-55
▁S	-56
ut	-57
ac	-58
ot	-59
▁A	-60
▁on	-61
▁that	-62
ay	-63
▁is	-64
im	-65
et	-66
am	-67
ad	-68
ow	-69
ig	-70
se	-71
▁for	-72
▁C	-73
ver	-74
ld	-75
ur	-76
ct	-77
▁u	-78
▁st	-79
▁y	-80
▁M	-81
▁it	-82
▁he	-83
ir	-84
ation	-85
▁B	-86
ith	-87
▁wh	-88
ce	-89
▁The	-90
ter	-91
▁we	-92
ol	-93
▁with	-94
il	-95
▁as	-96
▁P	-97
ch	-98
ill	-99
▁W	-100
nd	-101
ers	-102
▁you	-103
▁was	-104
ke	-105
▁H	-106
▁con	-107
▁de	-108
ate	-109
her	-110
▁D	-111
▁r	-112
if	-113
▁at	-114
▁R	-115
ag	-116
▁ha	-117
▁F	-118
▁se	-119
ore	-120
▁pro	-121
pp	-122
ul	-123
ment	-124
ri	-125
▁are	-126
▁1	-127
est	-128
▁2	-129
▁com	-130
us	-131
ist	-132
op	-133
ain	-134
and	-135
▁N	-136
▁(	-137
rom	-138
igh	-139
ort	-140
od	-141
▁ne	-142
um	-143
▁“	-144
▁ex	-145
un	-146
▁G	-147
ab	-148
▁v	-149
res	-150
▁L	-151
▁not	-152
ould	-153
ess	-154
th	-155
▁have	-156
ity	-157
▁or	-158
▁by	-159
os	-160
em	-161
ive	-162
▁from	-163
ant	-164
▁al	-165
▁E	-166
oc	-167
▁su	-168
art	-169
el	-170
nt	-171
▁this	-172
▁sh	-173
▁O	-174
ight	-175
ust	-176
qu	-177
pe	-178
▁le	-179
▁J	-180
▁"	-181
ies	-182
end	-183
▁ch	-184
▁sa	-185
out	-186
▁ab	-187
all	-188
ally	-189
ie	-190
▁has	-191
ack	-192
red	-193
▁pl	-194
00	-195
▁go	-196
ard	-197
ome	-198
iv	-199
▁his	-200
ear	-201
ast	-202
gh	-203
ra	-204
our	-205
ost	-206
▁j	-207
ud	-208
ak	-209
▁U	-210
rou	-211
▁do	-212
▁they	-213
▁wor	-214
▁said	-215
▁but	-216
▁will	-217
ge	-218
▁whe	-219
▁can	-220
ich	-221
pt	-222
▁k	-223
▁who	-224
▁all	-225
ok	-226
ide	-227
▁int	-228
▁tr	-229
ther	-230
ame	-231
ial	-232
ans	-233
ff	-234
▁out	-235
▁In	-236
▁their	-237
▁Th	-238
ect	-239
ong	-240
pl	-241
ice	-242
one	-243
ure	-244
▁more	-245
act	-246
ions	-247
▁up	-248
ous	-249
age	-250
ike	-251
▁me	-252
ine	-253
▁K	-254
▁ad	-255
ap	-256
ber	-257
ated	-258
og	-259
▁about	-260
ime	-261
▁20	-262
▁one	-263
▁us	-264
ep	-265
▁so	-266
▁St	-267
are	-268
▁were	-269
▁would	-270
▁had	-271
ia	-272
ub	-273
▁cl	-274
cc	-275
▁ag	-276
▁im	-277
ue	-278
▁which	-279
ind	-280
very	-281
ake	-282
▁off	-283
▁cont	-284
▁te	-285
iz	-286
▁comp	-287
per	-288
▁un	-289
so	-290
ign	-291
▁en	-292
▁been	-293
ace	-294
au	-295
ary	-296
▁year	-297
ip	-298
ew	-299
ere	-300
▁man	-301
▁inc	-302
..	-303
▁like	-304
ays	-305
ven	-306
▁res	-307
ry	-308
ose	-309
▁It	-310
▁pe	-311
ook	-312
ite	-313
▁201	-314
▁sp	-315
ord	-316
▁per	-317
ence	-318
▁other	-319
able	-320
ire	-321
▁some	-322
▁Y	-323
mer	-324
ass	-325
ile	-326
ople	-327
▁over	-328
ks	-329
ib	-330
ations	-331
▁new	-332
ical	-333
▁dis	-334
▁your	-335
ru	-336
▁there	-337
▁also	-338
ult	-339
▁than	-340
▁ar	-341
own	-342
int	-343
ount	-344
▁app	-345
ance	-346
▁V	-347
ree	-348
ress	-349
▁Ch	-350
ough	-351
▁them	-352
▁bec	-353
▁part	-354
port	-355
▁when	-356
ase	-357
ond	-358
fter	-359
av	-360
▁what	-361
▁people	-362
▁time	-363
▁just	-364
orm	-365
▁sc	-366
ail	-367
▁its	-368
▁any	-369
▁3	-370
ach	-371
▁qu	-372
▁kn	-373
reat	-374
▁her	-375
▁rec	-376
▁He	-377
▁my	-378
lic	-379
vel	-380
▁get	-381
.”	-382
▁into	-383
ens	-384
▁work	-385
ound	-386
irst	-387
du	-388
▁if	-389
▁-	-390
ob	-391
ction	-392
ory	-393
ian	-394
▁tw	-395
▁our	-396
ings	-397
ident	-398
ick	-399
ang	-400
ors	-401
▁no	-402
ition	-403
▁play	-404
ove	-405
▁pre	-406
hing	-407
wn	-408
ink	-409
ause	-410
ates	-411
amp	-412
,”	-413
itt	-414
ade	-415
▁after	-416
ark	-417
▁could	-418
▁co	-419
▁she	-420
▁19	-421
ild	-422
▁ro	-423
▁him	-424
vers	-425
ne	-426
▁first	-427
▁pol	-428
nder	-429
▁acc	-430
ious	-431
▁how	-432
▁po	-433
ons	-434
▁only	-435
aw	-436
hed	-437
▁But	-438
ict	-439
▁We	-440
▁pr	-441
ov	-442
▁att	-443
▁fe	-444
▁Wh	-445
▁bl	-446
erv	-447
▁act	-448
▁comm	-449
."	-450
▁dec	-451
ning	-452
we	-453
form	-454
ft	-455
▁back	-456
ish	-457
▁two	-458
▁spe	-459
▁bet	-460
▁This	-461
ces	-462
▁And	-463
▁am	-464
▁–	-465
▁most	-466
▁4	-467
▁again	-468
rough	-469
te	-470
round	-471
ater	-472
▁did	-473
oy	-474
ood	-475
▁des	-476
▁cons	-477
iff	-478
ise	-479
▁—	-480
▁want	-481
▁under	-482
day	-483
ec	-484
ual	-485
sel	-486
▁now	-487
tern	-488
lud	-489
▁As	-490
▁need	-491
rit	-492
▁inv	-493
▁years	-494
ents	-495
man	-496
ull	-497
▁because	-498
▁know	-499
▁every	-500
▁ind	-501
▁even	-502
ublic	-503
iss	-504
,"	-505
▁sec	-506
▁$	-507
▁5	-508
pect	-509
ject	-510
▁Un	-511
▁add	-512
fore	-513
ck	-514
▁see	-515
old	-516
ments	-517
urn	-518
ced	-519
▁Tr	-520
▁supp	-521
uch	-522
▁em	-523
▁make	-524
vern	-525
ph	-526
oll	-527
ock	-528
▁where	-529
ational	-530
▁these	-531
ating	-532
▁many	-533
▁bu	-534
ont	-535
oss	-536
▁look	-537
▁rel	-538
xt	-539
lect	-540
▁def	-541
iew	-542
▁ev	-543
row	-544
▁way	-545
ng	-546
ily	-547
▁reg	-548
▁last	-549
▁don	-550
▁think	-551
▁200	-552
ump	-553
▁call	-554
▁may	-555
▁imp	-556
ased	-557
▁then	-558
ason	-559
▁includ	-560
▁[	-561
rib	-562
▁right	-563
▁diff	-564
▁being	-565
▁say	-566
▁rem	-567
aking	-568
▁fl	-569
uring	-570
▁through	-571
ied	-572
The	-573
▁those	-574
▁should	-575
ative	-576
meric	-577
ath	-578
ited	-579
other	-580
▁pres	-581
les	-582
ower	-583
oth	-584
▁state	-585
).	-586
ities	-587
hen	-588
▁very	-589
▁show	-590
arg	-591
und	-592
ific	-593
▁much	-594
▁well	-595
▁end	-596
▁count	-597
ty	-598
▁New	-599
▁Re	-600
▁sy	-601
ters	-602
▁ph	-603
ange	-604
ell	-605
▁own	-606
▁br	-607
ward	-608
ting	-609
als	-610
ince	-611
arly	-612
▁ass	-613
ics	-614
omet	-615
▁govern	-616
▁does	-617
▁before	-618
▁down	-619
ible	-620
ues	-621
▁Americ	-622
▁bel	-623
▁mon	-624
▁report	-625
▁use	-626
▁ke	-627
ble	-628
olog	-629
ife	-630
▁team	-631
▁long	-632
up	-633
ert	-634
com	-635
▁such	-636
▁start	-637
ener	-638
gr	-639
gan	-640
erson	-641
▁fin	-642
▁sm	-643
▁against	-644
▁Al	-645
▁game	-646
ren	-647
),	-648
ually	-649
▁going	-650
▁world	-651
▁set	-652
oun	-653
ms	-654
ek	-655
▁hel	-656
▁gu	-657
▁stud	-658
▁You	-659
▁eff	-660
ility	-661
▁good	-662
ts	-663
▁ent	-664
▁sub	-665
its	-666
▁sur	-667
ix	-668
illion	-669
▁prov	-670
▁made	-671
▁ob	-672
...	-673
▁If	-674
▁says	-675
cy	-676
alk	-677
ful	-678
ists	-679
▁point	-680
ys	-681
▁while	-682
▁ac	-683
▁lead	-684
▁6	-685
▁produ	-686
▁min	-687
▁help	-688
▁take	-689
ork	-690
arch	-691
▁inst	-692
▁Ar	-693
▁sim	-694
▁car	-695
ank	-696
▁inter	-697
▁offic	-698
roup	-699
ax	-700
ween	-701
▁still	-702
hes	-703
000	-704
ah	-705
imes	-706
--	-707
ci	-708
▁num	-709
▁For	-710
ism	-711
self	-712
uss	-713
▁though	-714
▁conf	-715
ier	-716
▁Sh	-717
▁De	-718
ution	-719
cent	-720
▁col	-721
▁government	-722
▁Se	-723
stem	-724
cess	-725
velop	-726
▁differe	-727
▁op	-728
▁str	-729
▁cr	-730
▁ed	-731
▁same	-732
▁Le	-733
▁between	-734
ollow	-735
▁sign	-736
▁somet	-737
io	-738
con	-739
any	-740
hip	-741
▁Is	-742
way	-743
▁ter	-744
land	-745
▁high	-746
ool	-747
▁Com	-748
ros	-749
gg	-750
▁An	-751
ner	-752
▁ser	-753
ures	-754
▁law	-755
▁three	-756
read	-757
▁found	-758
ather	-759
▁ins	-760
ives	-761
air	-762
▁really	-763
▁ret	-764
▁trans	-765
atch	-766
▁ref	-767
▁They	-768
ames	-769
▁here	-770
▁around	-771
led	-772
▁Trump	-773
▁great	-774
▁med	-775
▁cour	-776
ving	-777
▁used	-778
ying	-779
ouse	-780
▁mem	-781
▁run	-782
▁That	-783
ins	-784
▁10	-785
▁mod	-786
▁support	-787
ved	-788
▁7	-789
alth	-790
▁gr	-791
▁fr	-792
▁group	-793
▁exp	-794
▁real	-795
▁Cl	-796
▁disc	-797
oot	-798
pr	-799
ense	-800
▁exper	-801
ever	-802
▁both	-803
▁happ	-804
▁public	-805
▁ext	-806
▁hand	-807
.[	-808
,000	-809
▁There	-810
▁det	-811
▁sl	-812
ars	-813
irect	-814
az	-815
▁cur	-816
▁fact	-817
▁read	-818
▁fam	-819
▁find	-820
ets	-821
cial	-822
ave	-823
ices	-824
▁develop	-825
cept	-826
▁day	-827
ton	-828
ale	-829
ision	-830
ines	-831
▁system	-832
oh	-833
ern	-834
med	-835
▁during	-836
▁month	-837
ular	-838
▁rep	-839
▁8	-840
▁since	-841
ered	-842
▁So	-843
▁person	-844
▁cre	-845
min	-846
ene	-847
▁wom	-848
▁iss	-849
▁aut	-850
ves	-851
▁On	-852
▁war	-853
▁serv	-854
aj	-855
▁follow	-856
▁lot	-857
▁week	-858
▁big	-859
the	-860
ording	-861
▁told	-862
ared	-863
▁'	-864
▁leg	-865
akes	-866
ically	-867
get	-868
▁cent	-869
ivers	-870
▁loc	-871
▁9	-872
▁Ad	-873
▁contin	-874
▁something	-875
▁Fr	-876
▁Pro	-877
orth	-878
iet	-879
▁few	-880
▁gener	-881
ash	-882
bers	-883
rent	-884
ience	-885
ric	-886
ention	-887
ages	-888
ute	-889
▁life	-890
▁cle	-891
▁invest	-892
▁another	-893
▁different	-894
▁resp	-895
iness	-896
▁requ	-897
▁polit	-898
der	-899
▁expl	-900
▁put	-901
▁soc	-902
▁rele	-903
▁inf	-904
▁plan	-905
ody	-906
▁fil	-907
▁met	-908
chool	-909
▁opp	-910
▁At	-911
▁camp	-912
▁How	-913
ex	-914
▁best	-915
▁‘	-916
▁belie	-917
uc	-918
thing	-919
arge	-920
▁cor	-921
att	-922
▁child	-923
▁art	-924
son	-925
▁head	-926
▁might	-927
▁second	-928
ross	-929
▁too	-930
▁each	-931
ata	-932
▁bus	-933
▁pass	-934
▁power	-935
erest	-936
▁got	-937
▁adv	-938
ield	-939
arl	-940
ness	-941
ox	-942
▁things	-943
▁prot	-944
▁commun	-945
ized	-946
▁vot	-947
ik	-948
▁far	-949
ret	-950
▁Rep	-951
▁come	-952
▁percent	-953
▁never	-954
▁ca	-955
view	-956
conom	-957
▁ask	-958
ee	-959
▁next	-960
ants	-961
▁dep	-962
▁che	-963
▁poss	-964
▁open	-965
▁allow	-966
▁seem	-967
chn	-968
▁incre	-969
▁Bl	-970
▁conc	-971
▁home	-972
▁mark	-973
▁pri	-974
ient	-975
ittle	-976
▁proble	-977
ug	-978
▁US	-979
▁million	-980
ize	-981
▁quest	-982
ple	-983
▁dem	-984
ately	-985
istr	-986
▁direct	-987
orn	-988
gram	-989
less	-990
▁number	-991
▁post	-992
▁place	-993
ired	-994
ital	-995
▁build	-996
co	-997
▁care	-998
▁country	-999
▁feel	-1000
▁el	-1001
▁0	-1002
▁top	-1003
▁result	-1004
▁av	-1005
oney	-1006
gy	-1007
▁contro	-1008
▁comple	-1009
arn	-1010
▁.	-1011
ling	-1012
▁import	-1013
▁including	-1014
osed	-1015
▁without	-1016
aim	-1017
▁tri	-1018
▁less	-1019
line	-1020
20	-1021
ten	-1022
▁She	-1023
▁better	-1024
▁wr	-1025
▁When	-1026
▁hum	-1027
▁let	-1028
▁appro	-1029
ency	-1030
▁Ind	-1031
▁recent	-1032
▁four	-1033
ably	-1034
▁mov	-1035
▁turn	-1036
▁case	-1037
ral	-1038
ished	-1039
▁inform	-1040
▁stand	-1041
▁interest	-1042
▁Z	-1043
▁called	-1044
ama	-1045
▁gl	-1046
▁What	-1047
ways	-1048
▁Q	-1049
▁Ph	-1050
▁hard	-1051
▁season	-1052
▁econom	-1053
ption	-1054
▁partic	-1055
▁rest	-1056
▁--	-1057
▁dr	-1058
▁bro	-1059
▁little	-1060
▁ide	-1061
▁didn	-1062
▁move	-1063
ains	-1064
riend	-1065
ering	-1066
ajor	-1067
▁left	-1068
▁keep	-1069
rat	-1070
▁level	-1071
▁val	-1072
ained	-1073
▁ann	-1074
ina	-1075
▁news	-1076
▁using	-1077
rem	-1078
ode	-1079
▁fun	-1080
We	-1081
leg	-1082
ertain	-1083
ird	-1084
▁tra	-1085
▁test	-1086
▁beh	-1087
▁pop	-1088
▁program	-1089
▁change	-1090
▁Ob	-1091
vious	-1092
inal	-1093
ract	-1094
▁main	-1095
▁Be	-1096
ology	-1097
▁mil	-1098
▁char	-1099
▁attack	-1100
ott	-1101
▁form	-1102
▁All	-1103
pped	-1104
▁techn	-1105
iving	-1106
ised	-1107
ined	-1108
▁list	-1109
▁project	-1110
▁pay	-1111
uro	-1112
ature	-1113
▁effect	-1114
nce	-1115
▁prom	-1116
▁company	-1117
▁win	-1118
be	-1119
ploy	-1120
▁small	-1121
▁current	-1122
▁job	-1123
▁full	-1124
▁business	-1125
▁data	-1126
▁pos	-1127
▁official	-1128
▁eas	-1129
▁health	-1130
ann	-1131
wit	-1132
ready	-1133
▁later	-1134
ohn	-1135
▁American	-1136
▁dri	-1137
ided	-1138
anc	-1139
▁unt	-1140
▁expect	-1141
▁organ	-1142
aign	-1143
used	-1144
▁Chr	-1145
ury	-1146
reen	-1147
▁police	-1148
ari	-1149
▁hist	-1150
▁design	-1151
▁president	-1152
outh	-1153
▁school	-1154
▁Go	-1155
hor	-1156
uck	-1157
▁rese	-1158
▁why	-1159
▁ty	-1160
iver	-1161
stand	-1162
▁process	-1163
▁chang	-1164
▁major	-1165
▁United	-1166
▁bre	-1167
▁past	-1168
▁vis	-1169
▁always	-1170
▁stre	-1171
▁free	-1172
▁money	-1173
▁already	-1174
▁claim	-1175
iven	-1176
atter	-1177
▁Sc	-1178
▁cap	-1179
▁pur	-1180
▁story	-1181
ger	-1182
▁John	-1183
cl	-1184
10	-1185
▁kill	-1186
▁talk	-1187
ases	-1188
iversity	-1189
to	-1190
ruct	-1191
▁city	-1192
aining	-1193
sc	-1194
▁Con	-1195
▁thing	-1196
▁happen	-1197
▁Pl	-1198
ider	-1199
▁women	-1200
▁Sp	-1201
▁Pres	-1202
▁class	-1203
▁bo	-1204
▁ele	-1205
▁away	-1206
▁campaign	-1207
ards	-1208
ural	-1209
▁view	-1210
▁12	-1211
ior	-1212
ample	-1213
▁oper	-1214
here	-1215
ending	-1216
It	-1217
▁Br	-1218
▁spec	-1219
▁prof	-1220
▁sol	-1221
▁Can	-1222
▁One	-1223
▁No	-1224
ians	-1225
ured	-1226
app	-1227
▁grow	-1228
▁information	-1229
▁May	-1230
els	-1231
▁rece	-1232
acy	-1233
▁aff	-1234
▁kind	-1235
▁sk	-1236
▁est	-1237
▁important	-1238
▁came	-1239
bs	-1240
ead	-1241
ley	-1242
▁must	-1243
▁doesn	-1244
▁making	-1245
▁Sy	-1246
side	-1247
▁elect	-1248
▁18	-1249
▁book	-1250
▁Mar	-1251
▁until	-1252
ney	-1253
▁pat	-1254
▁family	-1255
▁Mr	-1256
▁To	-1257
ides	-1258
▁vide	-1259
▁sit	-1260
ission	-1261
ope	-1262
▁tell	-1263
▁edit	-1264
urity	-1265
oad	-1266
▁line	-1267
▁const	-1268
▁large	-1269
▁enough	-1270
▁ve	-1271
▁took	-1272
▁tax	-1273
▁able	-1274
raph	-1275
▁old	-1276
arent	-1277
▁fore	-1278
▁Or	-1279
ator	-1280
▁polic	-1281
tt	-1282
eral	-1283
ccess	-1284
▁Comm	-1285
gin	-1286
▁intern	-1287
▁deb	-1288
▁according	-1289
▁record	-1290
▁dist	-1291
▁With	-1292
▁days	-1293
▁least	-1294
ane	-1295
ified	-1296
▁former	-1297
▁Republic	-1298
ember	-1299
▁la	-1300
▁men	-1301
ising	-1302
▁working	-1303
▁friend	-1304
iol	-1305
ush	-1306
mber	-1307
▁199	-1308
▁ever	-1309
ional	-1310
ror	-1311
▁mean	-1312
ization	-1313
▁15	-1314
▁deal	-1315
ued	-1316
ries	-1317
ality	-1318
veral	-1319
▁become	-1320
▁fund	-1321
▁return	-1322
most	-1323
une	-1324
▁cost	-1325
▁es	-1326
uture	-1327
▁del	-1328
▁Mc	-1329
icle	-1330
▁word	-1331
▁air	-1332
▁night	-1333
work	-1334
by	-1335
augh	-1336
br	-1337
enn	-1338
aring	-1339
▁President	-1340
sh	-1341
ither	-1342
▁done	-1343
alf	-1344
▁give	-1345
iqu	-1346
oint	-1347
▁charac	-1348
year	-1349
▁dev	-1350
▁actually	-1351
▁won	-1352
▁times	-1353
artment	-1354
vert	-1355
wh	-1356
▁Col	-1357
▁political	-1358
▁11	-1359
aken	-1360
▁order	-1361
__	-1362
iber	-1363
▁Russ	-1364
ister	-1365
-1	-1366
▁bit	-1367
▁market	-1368
▁Euro	-1369
ched	-1370
eng	-1371
▁press	-1372
▁Dem	-1373
▁=	-1374
ison	-1375
aps	-1376
ived	-1377
▁often	-1378
raft	-1379
idence	-1380
ially	-1381
▁After	-1382
▁event	-1383
ony	-1384
▁children	-1385
▁crit	-1386
▁Im	-1387
ocrat	-1388
▁bas	-1389
▁sing	-1390
▁ra	-1391
▁players	-1392
▁appear	-1393
▁games	-1394
▁likely	-1395
ware	-1396
▁pot	-1397
▁name	-1398
▁doing	-1399
▁along	-1400
▁human	-1401
▁problem	-1402
▁having	-1403
▁social	-1404
▁certain	-1405
▁early	-1406
ium	-1407
let	-1408
▁went	-1409
▁future	-1410
▁fight	-1411
▁today	-1412
▁media	-1413
Th	-1414
▁eng	-1415
ories	-1416
▁five	-1417
▁perform	-1418
ron	-1419
ended	-1420
▁State	-1421
▁short	-1422
▁Obama	-1423
ague	-1424
▁occ	-1425
▁Pol	-1426
iam	-1427
idd	-1428
▁sure	-1429
▁seen	-1430
ots	-1431
▁vers	-1432
▁young	-1433
rew	-1434
▁members	-1435
itive	-1436
▁invol	-1437
▁known	-1438
▁several	-1439
orld	-1440
▁example	-1441
▁(1	-1442
imate	-1443
ortun	-1444
▁whether	-1445
uff	-1446
▁equ	-1447
▁course	-1448
▁cho	-1449
▁water	-1450
30	-1451
for	-1452
▁activ	-1453
▁control	-1454
arm	-1455
▁hour	-1456
▁Fl	-1457
▁2016	-1458
▁desc	-1459
nect	-1460
▁Am	-1461
ubl	-1462
ands	-1463
▁fac	-1464
▁York	-1465
▁prop	-1466
▁among	-1467
▁means	-1468
▁ant	-1469
▁priv	-1470
▁meet	-1471
urs	-1472
▁investig	-1473
▁months	-1474
▁within	-1475
▁milit	-1476
ER	-1477
----	-1478
▁success	-1479
▁local	-1480
▁Europe	-1481
eb	-1482
oci	-1483
▁video	-1484
ulation	-1485
▁across	-1486
▁others	-1487
▁X	-1488
▁]	-1489
ential	-1490
ivid	-1491
ster	-1492
▁arg	-1493
▁product	-1494
.5	-1495
▁understand	-1496
ones	-1497
▁question	-1498
▁30	-1499
▁#	-1500
rop	-1501
ances	-1502
▁once	-1503
ball	-1504
▁viol	-1505
▁&	-1506
▁sex	-1507
▁possible	-1508
▁Co	-1509
ourn	-1510
▁sour	-1511
▁Ex	-1512
orts	-1513
ggest	-1514
iting	-1515
▁reported	-1516
empt	-1517
gress	-1518
gether	-1519
▁together	-1520
▁Christ	-1521
▁House	-1522
iron	-1523
▁Not	-1524
ailable	-1525
ensive	-1526
▁orig	-1527
ats	-1528
aged	-1529
▁given	-1530
▁indust	-1531
▁announ	-1532
▁Te	-1533
▁Min	-1534
▁side	-1535
▁mar	-1536
▁However	-1537
iety	-1538
▁yet	-1539
▁makes	-1540
▁hig	-1541
▁States	-1542
▁thought	-1543
urther	-1544
▁fail	-1545
▁author	-1546
inc	-1547
rest	-1548
itions	-1549
verage	-1550
ederal	-1551
af	-1552
ober	-1553
▁hold	-1554
▁suggest	-1555
▁Sen	-1556
▁i	-1557
por	-1558
▁non	-1559
ald	-1560
▁,	-1561
▁trad	-1562
ler	-1563
▁Cent	-1564
▁University	-1565
▁mus	-1566
ted	-1567
▁Pr	-1568
uly	-1569
▁While	-1570
▁almost	-1571
50	-1572
not	-1573
▁prob	-1574
▁writ	-1575
▁getting	-1576
▁$1	-1577
▁community	-1578
▁low	-1579
ument	-1580
▁asked	-1581
▁employ	-1582
lf	-1583
back	-1584
ashing	-1585
▁var	-1586
.,	-1587
▁cond	-1588
erence	-1589
▁Bro	-1590
selves	-1591
▁cut	-1592
▁ident	-1593
▁experience	-1594
▁light	-1595
▁strong	-1596
aff	-1597
use	-1598
▁sent	-1599
▁America	-1600
▁protect	-1601
▁comes	-1602
.0	-1603
book	-1604
▁lim	-1605
▁reason	-1606
▁Don	-1607
▁history	-1608
hers	-1609
utes	-1610
▁bill	-1611
▁series	-1612
▁land	-1613
▁Dep	-1614
▁close	-1615
▁impro	-1616
vent	-1617
▁mom	-1618
▁area	-1619
▁love	-1620
▁believe	-1621
▁net	-1622
▁issue	-1623
ef	-1624
▁death	-1625
ability	-1626
resent	-1627
witter	-1628
▁available	-1629
my	-1630
▁ago	-1631
▁2015	-1632
▁fav	-1633
aster	-1634
ination	-1635
▁bene	-1636
▁par	-1637
▁trying	-1638
▁started	-1639
▁Democrat	-1640
▁national	-1641
▁foc	-1642
▁2014	-1643
itional	-1644
ored	-1645
▁wanted	-1646
▁ris	-1647
rael	-1648
▁anal	-1649
▁account	-1650
unch	-1651
▁saf	-1652
arr	-1653
ators	-1654
inton	-1655
ividual	-1656
▁discuss	-1657
of	-1658
▁isn	-1659
▁added	-1660
▁looking	-1661
rodu	-1662
▁film	-1663
▁clear	-1664
▁party	-1665
▁rul	-1666
rug	-1667
▁Man	-1668
▁/	-1669
▁Ne	-1670
▁Canad	-1671
▁live	-1672
▁court	-1673
ustom	-1674
though	-1675
play	-1676
cially	-1677
▁fre	-1678
▁anything	-1679
▁mor	-1680
▁proper	-1681
▁App	-1682
▁saying	-1683
▁following	-1684
▁Aust	-1685
▁half	-1686
▁Gr	-1687
▁access	-1688
▁fall	-1689
▁World	-1690
▁complete	-1691
▁Sec	-1692
▁pract	-1693
▁present	-1694
ps	-1695
▁Just	-1696
▁z	-1697
▁Af	-1698
▁Su	-1699
ails	-1700
atic	-1701
▁creat	-1702
▁taken	-1703
▁tot	-1704
ief	-1705
▁City	-1706
▁based	-1707
▁idea	-1708
▁someone	-1709
▁War	-1710
irc	-1711
▁miss	-1712
▁Ger	-1713
▁Res	-1714
wards	-1715
▁North	-1716
▁behind	-1717
▁16	-1718
▁Cal	-1719
ged	-1720
▁near	-1721
ilar	-1722
ream	-1723
▁individual	-1724
▁front	-1725
off	-1726
▁six	-1727
cing	-1728
osp	-1729
▁Clinton	-1730
▁publ	-1731
▁Jan	-1732
▁...	-1733
▁research	-1734
aid	-1735
nes	-1736
▁Ed	-1737
▁cult	-1738
▁player	-1739
▁taking	-1740
ply	-1741
▁cand	-1742
▁learn	-1743
▁face	-1744
▁threat	-1745
▁Dav	-1746
▁Israel	-1747
▁benef	-1748
▁Ab	-1749
ows	-1750
raw	-1751
▁phot	-1752
▁policy	-1753
.)	-1754
aper	-1755
▁These	-1756
▁entire	-1757
ai	-1758
▁Inst	-1759
▁rather	-1760
uge	-1761
arter	-1762
▁Some	-1763
▁security	-1764
▁Now	-1765
▁South	-1766
▁space	-1767
▁bad	-1768
lling	-1769
▁concern	-1770
▁National	-1771
.1	-1772
▁food	-1773
▁begin	-1774
▁else	-1775
▁key	-1776
▁2013	-1777
▁study	-1778
▁14	-1779
ana	-1780
▁er	-1781
▁compet	-1782
reme	-1783
ministr	-1784
▁Brit	-1785
▁vict	-1786
▁Gu	-1787
▁bring	-1788
▁connect	-1789
▁previous	-1790
▁single	-1791
▁2012	-1792
AT	-1793
yn	-1794
▁:	-1795
▁nothing	-1796
ops	-1797
▁stri	-1798
ashington	-1799
cer	-1800
▁sw	-1801
▁Eng	-1802
igr	-1803
over	-1804
▁sum	-1805
viron	-1806
▁military	-1807
▁redu	-1808
ien	-1809
oid	-1810
▁Me	-1811
▁2017	-1812
▁mess	-1813
▁describ	-1814
▁whole	-1815
▁quick	-1816
ify	-1817
now	-1818
pping	-1819
▁colle	-1820
rote	-1821
▁either	-1822
par	-1823
▁Ass	-1824
▁13	-1825
▁body	-1826
▁decision	-1827
▁hit	-1828
▁try	-1829
▁everything	-1830
▁My	-1831
ales	-1832
▁coun	-1833
▁By	-1834
ault	-1835
ches	-1836
▁doc	-1837
▁fig	-1838
ently	-1839
▁further	-1840
▁seems	-1841
▁black	-1842
ran	-1843
▁Washington	-1844
▁compan	-1845
▁released	-1846
▁signific	-1847
amed	-1848
▁development	-1849
▁leaders	-1850
▁probably	-1851
▁jo	-1852
aul	-1853
▁sus	-1854
▁feat	-1855
▁repl	-1856
olution	-1857
▁officials	-1858
▁infl	-1859
▁points	-1860
▁Part	-1861
▁conv	-1862
▁wrote	-1863
▁create	-1864
▁third	-1865
▁coming	-1866
IN	-1867
▁comb	-1868
▁Ge	-1869
▁relations	-1870
▁17	-1871
▁pick	-1872
▁special	-1873
ully	-1874
▁imm	-1875
▁mult	-1876
▁attempt	-1877
▁chall	-1878
mb	-1879
elt	-1880
▁opt	-1881
▁amount	-1882
pecially	-1883
1,	-1884
▁issues	-1885
▁himself	-1886
▁fire	-1887
▁pret	-1888
▁appe	-1889
▁exist	-1890
▁His	-1891
▁dou	-1892
icult	-1893
//	-1894
▁targ	-1895
go	-1896
ried	-1897
▁candid	-1898
ung	-1899
ming	-1900
▁super	-1901
▁due	-1902
asing	-1903
ively	-1904
▁however	-1905
▁began	-1906
▁ground	-1907
▁character	-1908
irl	-1909
▁Dr	-1910
pite	-1911
▁News	-1912
aced	-1913
aces	-1914
▁mass	-1915
▁compl	-1916
▁Do	-1917
arth	-1918
▁treat	-1919
▁step	-1920
▁custom	-1921
▁continue	-1922
▁dam	-1923
▁states	-1924
▁themselves	-1925
ON	-1926
▁room	-1927
▁watch	-1928
anks	-1929
▁cou	-1930
attle	-1931
▁Twitter	-1932
▁simply	-1933
▁Intern	-1934
aut	-1935
▁larg	-1936
▁mind	-1937
oon	-1938
▁federal	-1939
://	-1940
▁role	-1941
ograph	-1942
▁wa	-1943
▁enc	-1944
▁rights	-1945
▁provide	-1946
iday	-1947
▁outside	-1948
▁service	-1949
IS	-1950
abl	-1951
▁Med	-1952
lement	-1953
head	-1954
ring	-1955
▁drug	-1956
▁foot	-1957
▁similar	-1958
ape	-1959
reg	-1960
amer	-1961
ender	-1962
▁situ	-1963
▁field	-1964
▁house	-1965
▁break	-1966
▁West	-1967
obal	-1968
▁Face	-1969
▁exec	-1970
▁sound	-1971
▁init	-1972
pro	-1973
vironment	-1974
▁students	-1975
▁companies	-1976
▁represent	-1977
like	-1978
▁Acc	-1979
▁matter	-1980
▁ener	-1981
▁evidence	-1982
sy	-1983
ivil	-1984
▁lab	-1985
▁China	-1986
iod	-1987
ager	-1988
▁Will	-1989
▁true	-1990
▁everyone	-1991
▁industry	-1992
▁100	-1993
▁general	-1994
▁include	-1995
▁significant	-1996
▁Pe	-1997
▁final	-1998
▁needed	-1999
▁statement	-2000
▁changes	-2001
▁above	-2002
▁economic	-2003
▁mot	-2004
▁March	-2005
▁office	-2006
▁wasn	-2007
▁itself	-2008
▁hours	-2009
AN	-2010
▁ey	-2011
▁meas	-2012
▁consider	-2013
AR	-2014
irt	-2015
sec	-2016
medi	-2017
▁White	-2018
▁Mich	-2019
▁agree	-2020
umb	-2021
▁En	-2022
sw	-2023
lam	-2024
▁tre	-2025
▁needs	-2026
▁release	-2027
▁respons	-2028
ili	-2029
ww	-2030
▁became	-2031
▁online	-2032
▁Ke	-2033
itted	-2034
▁deep	-2035
▁specific	-2036
▁|	-2037
▁red	-2038
▁groups	-2039
ogle	-2040
▁Department	-2041
.2	-2042
▁More	-2043
▁countries	-2044
eks	-2045
▁Oct	-2046
▁stat	-2047
▁German	-2048
▁running	-2049
ogn	-2050
▁198	-2051
▁Car	-2052
▁dest	-2053
arlier	-2054
ift	-2055
isc	-2056
ades	-2057
▁June	-2058
▁forward	-2059
atur	-2060
ibility	-2061
lim	-2062
yle	-2063
▁webs	-2064
▁recently	-2065
▁object	-2066
▁stop	-2067
▁position	-2068
ask	-2069
▁Aug	-2070
ights	-2071
▁music	-2072
▁host	-2073
▁version	-2074
▁Bar	-2075
▁Syri	-2076
▁woman	-2077
▁difficult	-2078
▁goal	-2079
▁building	-2080
ery	-2081
▁typ	-2082
▁self	-2083
▁Per	-2084
▁quite	-2085
ES	-2086
▁gun	-2087
▁July	-2088
▁alleg	-2089
▁legal	-2090
▁shows	-2091
▁address	-2092
▁especially	-2093
ilt	-2094
▁exc	-2095
▁mag	-2096
▁charg	-2097
▁profess	-2098
ned	-2099
val	-2100
▁rad	-2101
▁Facebook	-2102
▁billion	-2103
▁neg	-2104
ournal	-2105
▁below	-2106
▁respect	-2107
angu	-2108
▁inj	-2109
▁Sept	-2110
▁hope	-2111
▁sense	-2112
▁phys	-2113
▁common	-2114
▁jud	-2115
▁decl	-2116
▁site	-2117
ids	-2118
▁25	-2119
▁deter	-2120
▁longer	-2121
epend	-2122
▁ball	-2123
su	-2124
▁)	-2125
ript	-2126
▁tem	-2127
▁Cong	-2128
▁Here	-2129
▁played	-2130
▁interview	-2131
fully	-2132
▁lost	-2133
▁pain	-2134
den	-2135
▁Sm	-2136
ffic	-2137
▁share	-2138
ival	-2139
▁action	-2140
hod	-2141
▁Mus	-2142
oph	-2143
uary	-2144
where	-2145
▁educ	-2146
▁higher	-2147
▁soon	-2148
▁energy	-2149
ote	-2150
oring	-2151
▁administr	-2152
BC	-2153
▁Google	-2154
▁technology	-2155
ique	-2156
▁ap	-2157
▁dom	-2158
▁value	-2159
▁period	-2160
▁50	-2161
▁shoot	-2162
▁moment	-2163
▁minutes	-2164
alt	-2165
▁lo	-2166
▁aud	-2167
▁weeks	-2168
irm	-2169
▁saw	-2170
istic	-2171
▁instead	-2172
▁bar	-2173
▁circ	-2174
▁Em	-2175
iding	-2176
uted	-2177
▁abs	-2178
▁serious	-2179
hel	-2180
▁24	-2181
▁anim	-2182
▁opportun	-2183
me	-2184
oe	-2185
▁friends	-2186
▁Apr	-2187
▁expected	-2188
11	-2189
rap	-2190
bo	-2191
▁tit	-2192
▁favor	-2193
▁election	-2194
▁Ste	-2195
osing	-2196
▁track	-2197
▁pretty	-2198
▁works	-2199
▁playing	-2200
▁hom	-2201
▁held	-2202
▁walk	-2203
ites	-2204
onse	-2205
AS	-2206
key	-2207
▁force	-2208
na	-2209
▁contract	-2210
▁increase	-2211
ends	-2212
time	-2213
OR	-2214
ental	-2215
right	-2216
▁consum	-2217
fer	-2218
▁code	-2219
▁prim	-2220
▁Austral	-2221
▁comment	-2222
str	-2223
▁ep	-2224
▁focus	-2225
▁@	-2226
ude	-2227
▁gen	-2228
ached	-2229
....	-2230
▁parent	-2231
▁potential	-2232
.3	-2233
ners	-2234
▁stay	-2235
▁age	-2236
▁Republican	-2237
ky	-2238
omm	-2239
▁Har	-2240
▁April	-2241
itution	-2242
ctor	-2243
▁den	-2244
▁easy	-2245
▁private	-2246
lt	-2247
▁2010	-2248
oke	-2249
▁El	-2250
▁total	-2251
▁target	-2252
▁article	-2253
▁function	-2254
▁stru	-2255
action	-2256
▁words	-2257
ele	-2258
lex	-2259
▁Des	-2260
▁anti	-2261
▁impact	-2262
▁review	-2263
▁personal	-2264
ham	-2265
isl	-2266
ients	-2267
▁hy	-2268
iddle	-2269
▁applic	-2270
reet	-2271
atives	-2272
▁block	-2273
▁white	-2274
▁wind	-2275
▁finan	-2276
ams	-2277
▁Hill	-2278
▁late	-2279
▁accept	-2280
fect	-2281
haps	-2282
lease	-2283
▁Red	-2284
▁htt	-2285
▁sold	-2286
▁surpr	-2287
▁January	-2288
rel	-2289
▁pack	-2290
itting	-2291
▁relationship	-2292
▁problems	-2293
8,	-2294
▁*	-2295
overed	-2296
▁rate	-2297
▁vote	-2298
rought	-2299
▁relig	-2300
▁check	-2301
ilities	-2302
▁Friday	-2303
▁rev	-2304
▁upd	-2305
▁services	-2306
cast	-2307
urch	-2308
▁According	-2309
ging	-2310
▁Paul	-2311
ularly	-2312
apan	-2313
▁div	-2314
▁pie	-2315
asons	-2316
▁immedi	-2317
▁Congress	-2318
hern	-2319
▁David	-2320
-2	-2321
▁di	-2322
▁wrong	-2323
▁international	-2324
ze	-2325
▁arrest	-2326
▁vol	-2327
▁type	-2328
▁necess	-2329
St	-2330
▁+	-2331
ires	-2332
▁Cour	-2333
▁created	-2334
joy	-2335
▁et	-2336
▁Act	-2337
▁ways	-2338
lled	-2339
▁Feb	-2340
anger	-2341
▁involved	-2342
eed	-2343
ateg	-2344
▁First	-2345
▁Russia	-2346
▁killed	-2347
uel	-2348
▁sen	-2349
▁earlier	-2350
▁environment	-2351
lear	-2352
▁197	-2353
ovember	-2354
iter	-2355
ples	-2356
▁reve	-2357
▁August	-2358
▁Pal	-2359
ellig	-2360
▁Mond	-2361
ruction	-2362
▁cred	-2363
istrict	-2364
▁nation	-2365
ises	-2366
▁cases	-2367
▁contrib	-2368
ael	-2369
▁led	-2370
.4	-2371
arc	-2372
ray	-2373
itten	-2374
▁source	-2375
▁terror	-2376
▁Even	-2377
▁inside	-2378
▁nearly	-2379
60	-2380
▁ste	-2381
▁coll	-2382
▁terms	-2383
ees	-2384
ips	-2385
aving	-2386
▁Calif	-2387
▁chance	-2388
99	-2389
▁Cont	-2390
▁model	-2391
▁announced	-2392
▁langu	-2393
▁anyone	-2394
This	-2395
▁Count	-2396
aging	-2397
ittee	-2398
▁exact	-2399
▁establ	-2400
▁Ag	-2401
eter	-2402
▁Ang	-2403
▁port	-2404
▁reports	-2405
▁questions	-2406
▁base	-2407
▁comput	-2408
▁living	-2409
▁November	-2410
▁Gl	-2411
▁Monday	-2412
▁regard	-2413
ological	-2414
▁response	-2415
▁popular	-2416
▁September	-2417
bor	-2418
body	-2419
▁answ	-2420
▁arri	-2421
▁dead	-2422
▁shot	-2423
atural	-2424
▁defin	-2425
▁results	-2426
He	-2427
ule	-2428
itiz	-2429
uesday	-2430
▁broad	-2431
▁Wed	-2432
based	-2433
▁scient	-2434
▁lack	-2435
▁worked	-2436
▁happened	-2437
▁cannot	-2438
▁obs	-2439
▁road	-2440
hood	-2441
▁risk	-2442
▁Japan	-2443
▁subject	-2444
In	-2445
omb	-2446
▁Tuesday	-2447
avy	-2448
cil	-2449
duct	-2450
icro	-2451
▁staff	-2452
▁Americans	-2453
aur	-2454
aker	-2455
aterial	-2456
▁{	-2457
▁leave	-2458
de	-2459
bit	-2460
▁Her	-2461
▁influ	-2462
▁workers	-2463
▁director	-2464
ought	-2465
▁Geor	-2466
▁Islam	-2467
▁users	-2468
▁ability	-2469
▁decided	-2470
cember	-2471
icated	-2472
▁civil	-2473
▁method	-2474
▁40	-2475
▁mat	-2476
izing	-2477
▁Sund	-2478
▁lives	-2479
▁engine	-2480
▁October	-2481
▁original	-2482
oto	-2483
face	-2484
▁becom	-2485
▁phone	-2486
▁foreign	-2487
iple	-2488
▁Spe	-2489
▁mid	-2490
▁club	-2491
▁store	-2492
▁collect	-2493
▁website	-2494
9,	-2495
▁buy	-2496
▁hon	-2497
▁loss	-2498
▁economy	-2499
▁respond	-2500
okes	-2501
▁San	-2502
▁lat	-2503
▁squ	-2504
▁associ	-2505
▁simple	-2506
▁express	-2507
Wh	-2508
che	-2509
ole	-2510
▁dig	-2511
▁production	-2512
uth	-2513
▁Qu	-2514
▁ur	-2515
order	-2516
▁soft	-2517
▁affect	-2518
▁mother	-2519
▁average	-2520
▁numbers	-2521
chie	-2522
▁repe	-2523
▁improve	-2524
put	-2525
atory	-2526
▁require	-2527
▁published	-2528
▁God	-2529
▁bur	-2530
▁race	-2531
▁global	-2532
ills	-2533
▁fast	-2534
▁pred	-2535
▁received	-2536
▁fans	-2537
▁introdu	-2538
▁Afric	-2539
▁approach	-2540
▁(2	-2541
▁trade	-2542
oor	-2543
utions	-2544
▁enjoy	-2545
▁plans	-2546
▁turned	-2547
utive	-2548
▁heart	-2549
▁Wednes	-2550
▁December	-2551
▁spent	-2552
▁whose	-2553
14	-2554
ety	-2555
▁movement	-2556
EN	-2557
▁lower	-2558
▁teams	-2559
▁TV	-2560
▁Court	-2561
▁Californ	-2562
down	-2563
▁wide	-2564
▁currently	-2565
▁legisl	-2566
▁Wednesday	-2567
▁financial	-2568
apt	-2569
ened	-2570
oved	-2571
▁Sch	-2572
▁worth	-2573
field	-2574
▁<	-2575
rect	-2576
▁Iran	-2577
▁capt	-2578
▁cell	-2579
▁offer	-2580
▁network	-2581
ani	-2582
▁21	-2583
▁request	-2584
▁performance	-2585
▁Of	-2586
▁weap	-2587
oo	-2588
▁Sw	-2589
▁Kore	-2590
▁cover	-2591
bl	-2592
▁pull	-2593
▁tool	-2594
iction	-2595
▁Thurs	-2596
▁particip	-2597
mon	-2598
▁goes	-2599
▁areas	-2600
▁oil	-2601
▁via	-2602
▁emer	-2603
▁career	-2604
▁secret	-2605
▁Tw	-2606
estern	-2607
▁price	-2608
▁speed	-2609
▁cal	-2610
▁mis	-2611
▁veh	-2612
▁pers	-2613
orters	-2614
▁Thursday	-2615
▁included	-2616
▁takes	-2617
▁Canada	-2618
▁situation	-2619
6,	-2620
lev	-2621
▁Sunday	-2622
][	-2623
ume	-2624
▁log	-2625
usion	-2626
▁Then	-2627
rown	-2628
▁Pat	-2629
▁tal	-2630
▁$2	-2631
▁UK	-2632
aily	-2633
▁visit	-2634
rain	-2635
▁girl	-2636
▁cause	-2637
▁tried	-2638
▁levels	-2639
.7	-2640
▁cop	-2641
vertise	-2642
▁hor	-2643
undred	-2644
▁brought	-2645
▁administration	-2646
ceed	-2647
uses	-2648
▁norm	-2649
▁page	-2650
agement	-2651
osition	-2652
▁recogn	-2653
▁town	-2654
7,	-2655
▁California	-2656
oud	-2657
▁hop	-2658
▁pict	-2659
▁looks	-2660
You	-2661
unt	-2662
▁From	-2663
▁Post	-2664
▁thous	-2665
▁search	-2666
▁separ	-2667
▁22	-2668
idered	-2669
▁heard	-2670
ructure	-2671
”.	-2672
raq	-2673
▁bi	-2674
▁Par	-2675
▁tou	-2676
icles	-2677
▁fear	-2678
▁father	-2679
▁content	-2680
▁Cor	-2681
▁bank	-2682
ishing	-2683
▁events	-2684
▁population	-2685
▁suff	-2686
▁jobs	-2687
".	-2688
ino	-2689
ondon	-2690
▁felt	-2691
ources	-2692
ese	-2693
sequ	-2694
▁board	-2695
▁perfect	-2696
yl	-2697
▁email	-2698
▁hands	-2699
▁European	-2700
▁son	-2701
▁forces	-2702
▁growth	-2703
▁various	-2704
▁ord	-2705
▁member	-2706
▁material	-2707
load	-2708
▁morning	-2709
▁attention	-2710
____	-2711
▁adm	-2712
▁sett	-2713
▁British	-2714
▁medical	-2715
reed	-2716
ences	-2717
ED	-2718
alled	-2719
▁Street	-2720
▁Bec	-2721
▁Iraq	-2722
▁King	-2723
▁song	-2724
▁achie	-2725
▁meeting	-2726
▁Int	-2727
▁huge	-2728
▁London	-2729
3,	-2730
▁effort	-2731
▁Police	-2732
akers	-2733
▁considered	-2734
▁TH	-2735
ctions	-2736
▁quickly	-2737
▁particular	-2738
aled	-2739
▁fair	-2740
▁round	-2741
▁couple	-2742
▁mach	-2743
▁poll	-2744
ground	-2745
15	-2746
▁upon	-2747
▁Fin	-2748
▁Black	-2749
▁resident	-2750
12	-2751
rim	-2752
yond	-2753
ruary	-2754
▁gets	-2755
cement	-2756
▁latest	-2757
▁allowed	-2758
▁box	-2759
▁ens	-2760
▁fem	-2761
▁reb	-2762
▁prior	-2763
40	-2764
hold	-2765
▁Cons	-2766
▁Center	-2767
▁screen	-2768
▁citiz	-2769
▁match	-2770
aturday	-2771
▁region	-2772
itch	-2773
▁ess	-2774
▁Jew	-2775
aries	-2776
elligence	-2777
▁independ	-2778
▁Up	-2779
▁hot	-2780
atform	-2781
▁Gener	-2782
▁Other	-2783
▁travel	-2784
▁mention	-2785
▁document	-2786
▁IS	-2787
▁Rom	-2788
▁ill	-2789
▁February	-2790
pper	-2791
▁wants	-2792
▁extreme	-2793
▁message	-2794
?”	-2795
▁cy	-2796
▁vo	-2797
▁Park	-2798
ession	-2799
▁knew	-2800
▁image	-2801
▁features	-2802
",	-2803
uk	-2804
▁text	-2805
fl	-2806
▁bud	-2807
▁rules	-2808
▁Michael	-2809
▁conserv	-2810
▁incident	-2811
ening	-2812
▁gave	-2813
▁demand	-2814
▁victim	-2815
▁Mark	-2816
▁aren	-2817
▁blog	-2818
▁Times	-2819
entially	-2820
IC	-2821
ny	-2822
raz	-2823
▁1,	-2824
▁Mon	-2825
▁unc	-2826
▁Party	-2827
ication	-2828
▁contact	-2829
▁written	-2830
inks	-2831
▁inn	-2832
▁built	-2833
▁reach	-2834
▁Saturday	-2835
▁language	-2836
▁Che	-2837
▁prep	-2838
▁size	-2839
▁behav	-2840
▁climate	-2841
.8	-2842
▁Senate	-2843
▁capital	-2844
ett	-2845
▁Tom	-2846
▁path	-2847
▁talking	-2848
▁Lab	-2849
There	-2850
▁neigh	-2851
▁sort	-2852
▁wond	-2853
▁critic	-2854
▁violence	-2855
ech	-2856
▁regul	-2857
▁County	-2858
▁stuff	-2859
▁journal	-2860
urd	-2861
cies	-2862
iers	-2863
▁und	-2864
▁doub	-2865
▁liber	-2866
▁claims	-2867
arily	-2868
▁leader	-2869
▁increasing	-2870
.6	-2871
▁East	-2872
▁purp	-2873
▁Russian	-2874
▁addition	-2875
If	-2876
ha	-2877
ibly	-2878
aches	-2879
ining	-2880
▁exam	-2881
▁range	-2882
▁investigation	-2883
pir	-2884
gest	-2885
rast	-2886
ament	-2887
AL	-2888
bed	-2889
ibr	-2890
▁boy	-2891
obile	-2892
▁link	-2893
▁showed	-2894
▁progress	-2895
▁eight	-2896
▁looked	-2897
come	-2898
▁2011	-2899
▁mill	-2900
▁coach	-2901
▁Donald	-2902
▁interesting	-2903
▁hundred	-2904
▁Dis	-2905
▁Let	-2906
▁Mor	-2907
lying	-2908
▁paper	-2909
▁strugg	-2910
▁comments	-2911
▁crim	-2912
▁demon	-2913
▁culture	-2914
▁parents	-2915
ges	-2916
▁Play	-2917
▁Every	-2918
▁Indian	-2919
▁immigr	-2920
▁details	-2921
▁obvious	-2922
het	-2923
unk	-2924
uments	-2925
▁carry	-2926
▁directly	-2927
ida	-2928
▁Bill	-2929
▁Apple	-2930
▁maint	-2931
tr	-2932
▁Je	-2933
▁clos	-2934
▁hear	-2935
imately	-2936
room	-2937
▁Net	-2938
▁agency	-2939
anch	-2940
▁Mart	-2941
▁hosp	-2942
▁ones	-2943
▁Muslim	-2944
▁analys	-2945
▁despite	-2946
▁remains	-2947
▁certainly	-2948
13	-2949
▁sn	-2950
▁Art	-2951
ously	-2952
▁slow	-2953
--------	-2954
▁quarter	-2955
AC	-2956
light	-2957
▁Most	-2958
▁assist	-2959
asc	-2960
▁Tex	-2961
▁guy	-2962
▁fell	-2963
▁prevent	-2964
▁science	-2965
▁opportunity	-2966
ables	-2967
anced	-2968
▁seven	-2969
▁exactly	-2970
▁finally	-2971
vil	-2972
▁purch	-2973
▁prison	-2974
▁continued	-2975
urt	-2976
▁Bel	-2977
▁gas	-2978
▁efforts	-2979
ico	-2980
▁bott	-2981
▁extra	-2982
▁natural	-2983
▁training	-2984
▁immediately	-2985
icks	-2986
▁spokes	-2987
sych	-2988
▁dro	-2989
▁stories	-2990
▁described	-2991
▁particularly	-2992
erve	-2993
▁avoid	-2994
16	-2995
ma	-2996
hest	-2997
▁Sim	-2998
▁unf	-2999
ivity	-3000
▁James	-3001
▁society	-3002
ification	-3003
omp	-3004
▁Soc	-3005
▁lay	-3006
▁Sand	-3007
▁draw	-3008
▁paid	-3009
▁sens	-3010
▁sexual	-3011
▁platform	-3012
mp	-3013
istan	-3014
▁Comp	-3015
5,	-3016
▁hous	-3017
▁table	-3018
▁leading	-3019
▁officers	-3020
uf	-3021
▁}	-3022
coin	-3023
▁Rec	-3024
▁parts	-3025
▁Why	-3026
▁safe	-3027
▁blood	-3028
▁usually	-3029
▁starting	-3030
80	-3031
▁India	-3032
▁completely	-3033
▁ver	-3034
▁card	-3035
▁required	-3036
▁wife	-3037
▁Syria	-3038
▁clean	-3039
▁giving	-3040
▁majority	-3041
▁increased	-3042
▁pen	-3043
aming	-3044
aught	-3045
isions	-3046
FL	-3047
set	-3048
aves	-3049
▁doll	-3050
▁alone	-3051
▁movie	-3052
ux	-3053
oses	-3054
▁Read	-3055
▁Val	-3056
astic	-3057
▁letter	-3058
▁summer	-3059
▁consist	-3060
▁Wind	-3061
▁poor	-3062
ension	-3063
▁danger	-3064
▁histor	-3065
▁modern	-3066
▁conduct	-3067
▁reading	-3068
vertisement	-3069
king	-3070
rench	-3071
using	-3072
▁cele	-3073
▁fill	-3074
oper	-3075
itute	-3076
▁write	-3077
▁defense	-3078
▁quality	-3079
cle	-3080
enge	-3081
nces	-3082
▁user	-3083
▁remain	-3084
vey	-3085
▁Over	-3086
▁moved	-3087
▁Associ	-3088
▁league	-3089
▁practice	-3090
▁throughout	-3091
▁organization	-3092
);	-3093
IT	-3094
idge	-3095
▁ult	-3096
inary	-3097
▁Rich	-3098
▁Since	-3099
▁relative	-3100
▁candidate	-3101
new	-3102
▁Last	-3103
▁Serv	-3104
uclear	-3105
▁named	-3106
▁growing	-3107
▁Our	-3108
▁Well	-3109
▁William	-3110
▁writing	-3111
▁education	-3112
▁ten	-3113
▁League	-3114
▁center	-3115
▁damage	-3116
▁figure	-3117
4,	-3118
ara	-3119
lin	-3120
▁23	-3121
irth	-3122
▁fix	-3123
ledge	-3124
▁select	-3125
▁Ser	-3126
▁item	-3127
▁perhaps	-3128
▁protest	-3129
▁Democratic	-3130
fort	-3131
▁Sci	-3132
▁rac	-3133
▁sat	-3134
▁camer	-3135
▁cross	-3136
▁scene	-3137
ampions	-3138
▁sometimes	-3139
Ph	-3140
▁aw	-3141
▁Tur	-3142
▁except	-3143
▁biggest	-3144
▁experien	-3145
▁Off	-3146
▁swe	-3147
▁cast	-3148
▁answer	-3149
▁passed	-3150
▁attacks	-3151
▁counter	-3152
▁thousands	-3153
==	-3154
OS	-3155
egr	-3156
imum	-3157
itor	-3158
▁sell	-3159
▁alleged	-3160
▁beginning	-3161
▁conditions	-3162
wood	-3163
▁lic	-3164
▁Many	-3165
▁streng	-3166
▁Bo	-3167
ford	-3168
▁McC	-3169
▁ban	-3170
▁file	-3171
▁Super	-3172
▁calls	-3173
▁voters	-3174
ications	-3175
▁challeng	-3176
BI	-3177
▁epis	-3178
▁wouldn	-3179
▁thinking	-3180
ju	-3181
ston	-3182
▁guys	-3183
iant	-3184
omen	-3185
▁2008	-3186
▁rout	-3187
▁complex	-3188
▁systems	-3189
▁products	-3190
▁provided	-3191
OP	-3192
men	-3193
roy	-3194
▁pan	-3195
▁surv	-3196
▁appears	-3197
▁largest	-3198
US	-3199
rupt	-3200
▁moving	-3201
▁convers	-3202
▁towards	-3203
▁physical	-3204
▁rob	-3205
▁star	-3206
▁corpor	-3207
▁recomm	-3208
▁Republicans	-3209
AM	-3210
bur	-3211
aling	-3212
▁term	-3213
▁piece	-3214
▁effects	-3215
▁occur	-3216
▁changed	-3217
pre	-3218
▁196	-3219
▁opin	-3220
▁safety	-3221
-0	-3222
aly	-3223
▁sil	-3224
▁disp	-3225
▁2009	-3226
▁cris	-3227
▁century	-3228
▁appeared	-3229
▁projects	-3230
▁additional	-3231
aks	-3232
▁park	-3233
▁detail	-3234
▁limited	-3235
erc	-3236
▁Ben	-3237
▁Tor	-3238
▁bal	-3239
▁earn	-3240
▁stra	-3241
▁Texas	-3242
▁debate	-3243
▁characters	-3244
hib	-3245
eles	-3246
iment	-3247
▁brain	-3248
▁chief	-3249
▁beyond	-3250
berg	-3251
▁Jack	-3252
▁ahead	-3253
▁officer	-3254
oul	-3255
▁School	-3256
▁device	-3257
▁encour	-3258
▁senior	-3259
▁Us	-3260
▁sle	-3261
▁drive	-3262
▁ready	-3263
▁although	-3264
▁pressure	-3265
▁software	-3266
▁resources	-3267
venue	-3268
▁Coun	-3269
chan	-3270
▁tro	-3271
▁title	-3272
▁People	-3273
▁includes	-3274
▁International	-3275
EC	-3276
▁il	-3277
just	-3278
▁Get	-3279
craft	-3280
ource	-3281
itness	-3282
▁Green	-3283
▁launch	-3284
▁researc	-3285
▁implement	-3286
▁conference	-3287
agon	-3288
rowd	-3289
▁Aut	-3290
▁died	-3291
▁battle	-3292
▁toward	-3293
▁concept	-3294
2,	-3295
zz	-3296
▁(@	-3297
ustr	-3298
ander	-3299
icted	-3300
riage	-3301
▁Arab	-3302
▁Flor	-3303
▁High	-3304
▁Minister	-3305
▁designed	-3306
17	-3307
?"	-3308
add	-3309
▁II	-3310
olute	-3311
19	-3312
ero	-3313
yan	-3314
▁Add	-3315
▁Like	-3316
▁meant	-3317
▁unique	-3318
▁property	-3319
▁standard	-3320
eth	-3321
mit	-3322
▁imag	-3323
▁laws	-3324
▁prec	-3325
▁shown	-3326
▁choice	-3327
▁Although	-3328
▁During	-3329
▁greater	-3330
▁suspect	-3331
▁Cr	-3332
▁web	-3333
▁tour	-3334
▁estim	-3335
▁nature	-3336
▁display	-3337
▁student	-3338
wise	-3339
▁Ant	-3340
▁Ber	-3341
▁Ham	-3342
▁aim	-3343
ocked	-3344
▁vari	-3345
▁beaut	-3346
▁reasons	-3347
▁multiple	-3348
▁feed	-3349
▁firm	-3350
▁Earth	-3351
▁celebr	-3352
▁correct	-3353
▁meaning	-3354
▁positive	-3355
sp	-3356
▁Mex	-3357
▁Mil	-3358
atever	-3359
▁origin	-3360
enty	-3361
inese	-3362
aughter	-3363
▁couldn	-3364
▁middle	-3365
▁Australia	-3366
ID	-3367
They	-3368
aint	-3369
ores	-3370
ilies	-3371
▁gone	-3372
▁Rober	-3373
▁costs	-3374
▁touch	-3375
itation	-3376
▁Because	-3377
▁General	-3378
**	-3379
▁budget	-3380
▁observ	-3381
aud	-3382
▁fine	-3383
▁analy	-3384
▁demonstr	-3385
▁customers	-3386
▁necessary	-3387
▁Bu	-3388
▁Smith	-3389
▁autom	-3390
▁subst	-3391
▁Hillary	-3392
▁eventually	-3393
▁£	-3394
▁lif	-3395
▁http	-3396
▁susp	-3397
▁throw	-3398
▁French	-3399
▁failed	-3400
▁analysis	-3401
ken	-3402
▁mix	-3403
▁Alex	-3404
▁crime	-3405
▁option	-3406
▁college	-3407
▁remember	-3408
▁ple	-3409
▁stage	-3410
▁disapp	-3411
▁x	-3412
▁ir	-3413
▁Def	-3414
board	-3415
▁Govern	-3416
▁charge	-3417
▁feature	-3418
▁football	-3419
.9	-3420
ban	-3421
airs	-3422
urning	-3423
▁indic	-3424
ression	-3425
▁allows	-3426
▁speech	-3427
▁happens	-3428
▁citizens	-3429
▁favorite	-3430
▁executive	-3431
AP	-3432
ext	-3433
oes	-3434
vin	-3435
arian	-3436
▁date	-3437
▁sche	-3438
▁wall	-3439
▁Scott	-3440
▁crisis	-3441
▁programs	-3442
▁freed	-3443
▁actions	-3444
▁twe	-3445
while	-3446
▁manager	-3447
▁ut	-3448
band	-3449
▁dog	-3450
▁criminal	-3451
▁previously	-3452
ares	-3453
roid	-3454
▁arch	-3455
▁emot	-3456
▁grad	-3457
arning	-3458
▁Brown	-3459
▁confir	-3460
▁easily	-3461
▁Chinese	-3462
▁•	-3463
rol	-3464
adem	-3465
▁Yes	-3466
itely	-3467
▁enfor	-3468
▁rates	-3469
▁apparent	-3470
▁benefits	-3471
ota	-3472
▁fan	-3473
▁reflect	-3474
▁compared	-3475
▁ign	-3476
▁Star	-3477
▁draft	-3478
▁sales	-3479
▁George	-3480
▁straight	-3481
▁Christian	-3482
▁treatment	-3483
▁difference	-3484
▁presidential	-3485
ago	-3486
ica	-3487
lish	-3488
▁Gold	-3489
▁illeg	-3490
▁forced	-3491
▁Another	-3492
▁related	-3493
net	-3494
rief	-3495
▁Lou	-3496
▁signed	-3497
▁Democrats	-3498
iled	-3499
▁esc	-3500
▁nom	-3501
iance	-3502
ports	-3503
▁laun	-3504
onents	-3505
▁Johnson	-3506
▁individuals	-3507
dd	-3508
onent	-3509
orney	-3510
▁kids	-3511
▁spot	-3512
▁helped	-3513
▁Florida	-3514
▁60	-3515
term	-3516
ategy	-3517
iders	-3518
juana	-3519
▁eyes	-3520
ressed	-3521
▁Trans	-3522
▁crowd	-3523
▁attract	-3524
▁spending	-3525
▁yourself	-3526
25	-3527
▁Op	-3528
▁Air	-3529
▁Day	-3530
▁Law	-3531
▁pus	-3532
▁sto	-3533
▁Also	-3534
▁kept	-3535
▁nice	-3536
▁virt	-3537
▁promot	-3538
▁street	-3539
▁central	-3540
▁nuclear	-3541
▁computer	-3542
▁intelligence	-3543
▁Tod	-3544
▁happy	-3545
arijuana	-3546
▁decades	-3547
▁overall	-3548
dom	-3549
uing	-3550
vere	-3551
▁Reg	-3552
▁Sub	-3553
iring	-3554
▁rare	-3555
▁smart	-3556
▁Germany	-3557
▁sources	-3558
▁religious	-3559
Ch	-3560
uty	-3561
▁ang	-3562
owers	-3563
▁band	-3564
▁mist	-3565
encies	-3566
▁Franc	-3567
▁lines	-3568
▁psych	-3569
▁altern	-3570
▁Mo	-3571
▁wild	-3572
▁peace	-3573
▁income	-3574
▁charges	-3575
▁primary	-3576
▁Port	-3577
▁truth	-3578
▁traditional	-3579
▁Advertisement	-3580
ris	-3581
▁eth	-3582
▁Phil	-3583
▁maybe	-3584
▁Follow	-3585
▁commer	-3586
▁families	-3587
bon	-3588
resh	-3589
▁Are	-3590
urance	-3591
▁frequ	-3592
▁options	-3593
▁shooting	-3594
▁developed	-3595
▁$3	-3596
roll	-3597
▁Bay	-3598
▁print	-3599
▁concerns	-3600
▁challenge	-3601
ki	-3602
▁Bre	-3603
▁Mac	-3604
▁sal	-3605
ufact	-3606
▁pros	-3607
▁Union	-3608
▁aware	-3609
▁myself	-3610
amb	-3611
▁Two	-3612
▁prem	-3613
▁funding	-3614
▁reality	-3615
cul	-3616
▁refer	-3617
▁brother	-3618
▁receive	-3619
IA	-3620
▁Jer	-3621
▁pun	-3622
▁rock	-3623
▁send	-3624
lection	-3625
▁schools	-3626
more	-3627
ocks	-3628
▁rap	-3629
▁adop	-3630
▁distrib	-3631
▁activity	-3632
▁authorities	-3633
-3	-3634
3]	-3635
BA	-3636
box	-3637
ipp	-3638
icit	-3639
▁beat	-3640
▁cool	-3641
inated	-3642
▁fully	-3643
▁grand	-3644
▁knows	-3645
▁choose	-3646
▁larger	-3647
▁Francis	-3648
70	-3649
ING	-3650
iny	-3651
▁Oh	-3652
▁cru	-3653
orial	-3654
▁dark	-3655
▁rank	-3656
▁rule	-3657
▁Image	-3658
▁integr	-3659
levision	-3660
▁conflic	-3661
▁learned	-3662
▁EU	-3663
▁Rob	-3664
▁exch	-3665
18	-3666
OM	-3667
▁mer	-3668
▁uses	-3669
▁goals	-3670
▁noted	-3671
▁expand	-3672
▁claimed	-3673
▁parties	-3674
▁reached	-3675
▁district	-3676
▁fighting	-3677
▁save	-3678
▁mount	-3679
▁caused	-3680
▁weapons	-3681
▁politics	-3682
ube	-3683
▁26	-3684
▁Los	-3685
▁trou	-3686
▁advoc	-3687
▁Health	-3688
▁organiz	-3689
ev	-3690
:30	-3691
bum	-3692
▁Sl	-3693
▁cat	-3694
▁yes	-3695
▁prices	-3696
▁regular	-3697
▁millions	-3698
▁powerful	-3699
olic	-3700
▁Ter	-3701
earch	-3702
▁books	-3703
▁judge	-3704
▁seemed	-3705
▁values	-3706
▁English	-3707
▁followed	-3708
1]	-3709
ij	-3710
nown	-3711
▁feet	-3712
▁gives	-3713
▁voice	-3714
▁measure	-3715
As	-3716
ease	-3717
part	-3718
▁plant	-3719
vention	-3720
▁credit	-3721
▁weekend	-3722
▁absolute	-3723
▁supposed	-3724
▁birth	-3725
▁France	-3726
▁owners	-3727
▁places	-3728
▁continues	-3729
EL	-3730
SA	-3731
▁emb	-3732
mar	-3733
antly	-3734
ifying	-3735
▁cities	-3736
▁spread	-3737
▁La	-3738
rian	-3739
uman	-3740
▁Mike	-3741
▁Stud	-3742
▁impl	-3743
▁lawy	-3744
▁drink	-3745
▁trust	-3746
▁Windows	-3747
▁benefit	-3748
▁digital	-3749
ado	-3750
osh	-3751
ties	-3752
▁rise	-3753
▁responsible	-3754
oles	-3755
orks	-3756
ingly	-3757
▁drop	-3758
▁ended	-3759
▁AP	-3760
▁Del	-3761
▁har	-3762
▁Liber	-3763
▁heavy	-3764
▁freedom	-3765
OT	-3766
antage	-3767
▁style	-3768
▁normal	-3769
▁calling	-3770
▁devices	-3771
▁arrested	-3772
▁creating	-3773
▁arm	-3774
▁lik	-3775
▁Once	-3776
▁minor	-3777
▁mechan	-3778
▁reform	-3779
▁Internet	-3780
▁critical	-3781
▁operations	-3782
umn	-3783
mark	-3784
▁Tre	-3785
itude	-3786
▁lose	-3787
▁restr	-3788
▁adding	-3789
▁commit	-3790
▁Mag	-3791
▁door	-3792
▁ideas	-3793
▁status	-3794
inn	-3795
oti	-3796
▁Met	-3797
▁deg	-3798
ipped	-3799
▁dire	-3800
▁note	-3801
▁scen	-3802
▁Inter	-3803
▁occas	-3804
▁studies	-3805
▁hospital	-3806
miss	-3807
▁Mod	-3808
▁harm	-3809
▁Micro	-3810
▁Palest	-3811
▁highly	-3812
▁Angeles	-3813
▁records	-3814
▁strategy	-3815
▁surround	-3816
ugg	-3817
▁Found	-3818
▁Att	-3819
▁Vir	-3820
ville	-3821
▁spir	-3822
▁haven	-3823
▁spend	-3824
▁clearly	-3825
▁showing	-3826
▁>	-3827
see	-3828
orter	-3829
▁tend	-3830
▁Commun	-3831
▁raised	-3832
▁highest	-3833
▁massive	-3834
▁agreement	-3835
▁investment	-3836
▁application	-3837
ET	-3838
ribe	-3839
▁beg	-3840
ength	-3841
▁Game	-3842
▁Under	-3843
▁ensure	-3844
▁weight	-3845
▁influence	-3846
▁marijuana	-3847
.'	-3848
EO	-3849
▁Sam	-3850
▁liter	-3851
▁station	-3852
):	-3853
2]	-3854
how	-3855
lick	-3856
▁Step	-3857
▁Justice	-3858
▁prosec	-3859
▁theory	-3860
▁wonder	-3861
▁Instead	-3862
RE	-3863
▁der	-3864
▁hero	-3865
▁color	-3866
▁slight	-3867
▁Council	-3868
▁provides	-3869
▁successful	-3870
▁27	-3871
iles	-3872
▁fat	-3873
▁qual	-3874
▁wait	-3875
▁trial	-3876
▁actual	-3877
▁Western	-3878
▁manufact	-3879
▁minister	-3880
▁28	-3881
soft	-3882
▁Those	-3883
▁album	-3884
▁Secret	-3885
▁believed	-3886
▁marriage	-3887
▁legislation	-3888
iced	-3889
▁Any	-3890
level	-3891
▁instance	-3892
▁employees	-3893
▁management	-3894
ste	-3895
wide	-3896
▁Rel	-3897
▁Sun	-3898
istry	-3899
▁Hall	-3900
▁Your	-3901
▁appl	-3902
▁shut	-3903
▁Korea	-3904
▁propos	-3905
▁England	-3906
pri	-3907
sey	-3908
▁2,	-3909
mine	-3910
▁NFL	-3911
▁etc	-3912
▁copy	-3913
▁load	-3914
▁green	-3915
▁partners	-3916
▁revealed	-3917
▁solution	-3918
▁understanding	-3919
aith	-3920
point	-3921
▁achieve	-3922
▁interested	-3923
45	-3924
rs	-3925
▁Inc	-3926
▁teac	-3927
ography	-3928
orthern	-3929
▁Direct	-3930
▁leaving	-3931
▁pattern	-3932
▁whatever	-3933
ortunately	-3934
▁researchers	-3935
FC	-3936
”,	-3937
udd	-3938
well	-3939
▁Pre	-3940
▁bed	-3941
▁cry	-3942
gency	-3943
actions	-3944
▁defend	-3945
▁assault	-3946
▁location	-3947
no	-3948
▁AM	-3949
▁Big	-3950
▁Bush	-3951
▁swit	-3952
▁basic	-3953
▁train	-3954
▁border	-3955
▁memory	-3956
▁audience	-3957
▁becoming	-3958
cher	-3959
▁whom	-3960
▁brief	-3961
▁decade	-3962
▁justice	-3963
olf	-3964
que	-3965
ront	-3966
▁jump	-3967
arliam	-3968
▁daily	-3969
▁Israeli	-3970
▁mission	-3971
▁willing	-3972
▁determin	-3973
ya	-3974
ser	-3975
▁eye	-3976
▁debt	-3977
▁feeling	-3978
.’	-3979
ga	-3980
alse	-3981
▁fit	-3982
uries	-3983
▁cars	-3984
coming	-3985
▁enter	-3986
ference	-3987
▁strength	-3988
▁independent	-3989
▁Cup	-3990
▁rat	-3991
iverse	-3992
▁adult	-3993
▁brand	-3994
ription	-3995
▁offered	-3996
▁vehicle	-3997
▁Commission	-3998
▁associated	-3999
gen	-4000
olly	-4001
▁Wall	-4002
▁figh	-4003
▁names	-4004
▁worse	-4005
▁reduce	-4006
▁winning	-4007
arliament	-4008
▁policies	-4009
▁confirmed	-4010
90	-4011
AD	-4012
That	-4013
lant	-4014
▁Fox	-4015
▁Great	-4016
▁effic	-4017
▁destroy	-4018
▁politic	-4019
▁television	-4020
oly	-4021
▁Ty	-4022
cont	-4023
▁Leg	-4024
▁THE	-4025
▁obt	-4026
ctors	-4027
▁defe	-4028
▁Press	-4029
▁dream	-4030
▁compar	-4031
▁argument	-4032
▁controvers	-4033
4]	-4034
gl	-4035
But	-4036
▁max	-4037
▁core	-4038
▁graph	-4039
▁speak	-4040
▁served	-4041
▁Islamic	-4042
▁behavior	-4043
aked	-4044
acing	-4045
house	-4046
igned	-4047
ounds	-4048
▁Photo	-4049
isation	-4050
▁offers	-4051
▁posted	-4052
▁seeing	-4053
▁electric	-4054
▁definitely	-4055
▁ge	-4056
lands	-4057
▁Miss	-4058
▁Prof	-4059
▁vill	-4060
▁serve	-4061
▁asking	-4062
▁produced	-4063
▁extremely	-4064
ears	-4065
iful	-4066
▁Yet	-4067
▁nor	-4068
▁vac	-4069
▁enem	-4070
▁gold	-4071
▁runs	-4072
▁notes	-4073
mm	-4074
ait	-4075
edy	-4076
rav	-4077
ords	-4078
▁Jud	-4079
▁Pri	-4080
▁map	-4081
▁chem	-4082
▁coal	-4083
▁Chris	-4084
▁Louis	-4085
▁floor	-4086
ishment	-4087
▁Martin	-4088
▁Despite	-4089
▁hundreds	-4090
▁learning	-4091
500	-4092
ona	-4093
gers	-4094
▁See	-4095
▁sun	-4096
▁born	-4097
▁basis	-4098
▁opened	-4099
▁sports	-4100
▁Security	-4101
▁patients	-4102
▁proposed	-4103
▁department	-4104
▁communities	-4105
za	-4106
▁vs	-4107
igan	-4108
inger	-4109
▁Bank	-4110
▁push	-4111
▁thus	-4112
▁types	-4113
▁launched	-4114
▁residents	-4115
▁candidates	-4116
onto	-4117
▁Bit	-4118
▁cards	-4119
▁mobile	-4120
▁mostly	-4121
▁reject	-4122
▁temper	-4123
▁produce	-4124
▁existing	-4125
▁separate	-4126
▁supporters	-4127
ih	-4128
aine	-4129
rial	-4130
▁Mad	-4131
▁amb	-4132
▁sud	-4133
osure	-4134
▁Jones	-4135
▁female	-4136
▁stated	-4137
▁supported	-4138
IL	-4139
ags	-4140
▁DN	-4141
resp	-4142
▁worst	-4143
▁double	-4144
▁shared	-4145
▁episode	-4146
▁finding	-4147
ada	-4148
org	-4149
▁illegal	-4150
▁purpose	-4151
▁restaur	-4152
▁section	-4153
▁telling	-4154
▁Committee	-4155
▁direction	-4156
OU	-4157
rey	-4158
▁ES	-4159
bert	-4160
odes	-4161
▁Their	-4162
▁spoke	-4163
ictions	-4164
And	-4165
aby	-4166
ram	-4167
▁Ev	-4168
cell	-4169
▁Dec	-4170
▁Ver	-4171
▁ran	-4172
▁2007	-4173
▁Thom	-4174
▁accur	-4175
▁issued	-4176
▁command	-4177
▁opinion	-4178
▁commercial	-4179
▁professional	-4180
BS	-4181
▁mur	-4182
ented	-4183
icago	-4184
▁fuel	-4185
▁join	-4186
▁Virgin	-4187
▁Britain	-4188
▁machine	-4189
▁opening	-4190
▁coverage	-4191
▁Institute	-4192
▁dangerous	-4193
▁knowledge	-4194
▁35	-4195
▁ded	-4196
iller	-4197
▁Jeff	-4198
▁acqu	-4199
▁hack	-4200
ossible	-4201
▁Please	-4202
▁Robert	-4203
▁accused	-4204
▁picture	-4205
▁repeated	-4206
ipe	-4207
ker	-4208
oom	-4209
▁(3	-4210
▁Out	-4211
▁Wil	-4212
iable	-4213
orrow	-4214
▁Both	-4215
▁Mont	-4216
▁amaz	-4217
▁sites	-4218
▁stick	-4219
outhern	-4220
▁surface	-4221
▁documents	-4222
itz	-4223
▁Who	-4224
inate	-4225
▁Afgh	-4226
▁returned	-4227
ampionship	-4228
▁Uk	-4229
abor	-4230
▁Cap	-4231
▁Sil	-4232
iling	-4233
▁onto	-4234
ection	-4235
▁initi	-4236
▁committee	-4237
▁explained	-4238
www	-4239
▁80	-4240
▁Str	-4241
▁hair	-4242
▁tick	-4243
▁Today	-4244
▁Sanders	-4245
▁Microsoft	-4246
▁businesses	-4247
ocr	-4248
▁Pet	-4249
▁2000	-4250
▁kick	-4251
ibrary	-4252
▁newsp	-4253
▁tools	-4254
▁unlike	-4255
▁housing	-4256
▁advantage	-4257
▁concerned	-4258
EM	-4259
vest	-4260
estic	-4261
itable	-4262
▁fresh	-4263
▁resist	-4264
▁install	-4265
▁opposition	-4266
PA	-4267
ario	-4268
izes	-4269
▁FBI	-4270
▁wat	-4271
known	-4272
▁blue	-4273
▁male	-4274
▁frame	-4275
▁Office	-4276
▁afford	-4277
▁images	-4278
▁negoti	-4279
▁testing	-4280
▁watching	-4281
▁background	-4282
GB	-4283
semb	-4284
▁Jim	-4285
▁Mal	-4286
▁Rem	-4287
▁bomb	-4288
▁doubt	-4289
▁consequ	-4290
gu	-4291
▁Char	-4292
▁assum	-4293
▁guess	-4294
▁bottom	-4295
▁putting	-4296
▁Canadian	-4297
▁defensive	-4298
▁29	-4299
▁Sal	-4300
▁occup	-4301
▁missing	-4302
▁Association	-4303
▁conservative	-4304
icip	-4305
▁Sup	-4306
▁bul	-4307
▁ice	-4308
which	-4309
▁Jose	-4310
▁solid	-4311
▁dollars	-4312
▁driving	-4313
▁replace	-4314
▁internet	-4315
1.	-4316
4.	-4317
:00	-4318
iliar	-4319
useum	-4320
▁drugs	-4321
▁teach	-4322
▁African	-4323
▁comfort	-4324
▁effective	-4325
▁leadership	-4326
▁construction	-4327
li	-4328
▁Put	-4329
▁Back	-4330
▁phil	-4331
▁items	-4332
▁stock	-4333
▁Church	-4334
▁Chicago	-4335
▁allowing	-4336
▁condition	-4337
▁Det	-4338
inter	-4339
▁subsc	-4340
pective	-4341
▁caught	-4342
▁church	-4343
▁victory	-4344
▁negative	-4345
bre	-4346
▁UN	-4347
▁north	-4348
▁votes	-4349
▁Images	-4350
▁driver	-4351
▁smaller	-4352
▁1.	-4353
▁award	-4354
▁wealth	-4355
stitution	-4356
▁download	-4357
▁discussion	-4358
hem	-4359
kes	-4360
What	-4361
lege	-4362
oyal	-4363
▁pet	-4364
▁spl	-4365
▁excl	-4366
▁Jewish	-4367
▁easier	-4368
▁incred	-4369
▁notice	-4370
atically	-4371
▁neighbor	-4372
▁activities	-4373
NN	-4374
equ	-4375
▁Ac	-4376
▁Bur	-4377
annel	-4378
▁plays	-4379
▁score	-4380
▁sleep	-4381
▁honest	-4382
▁placed	-4383
▁prefer	-4384
▁Palestin	-4385
26	-4386
▁Sur	-4387
▁hus	-4388
▁Free	-4389
▁Mean	-4390
▁perm	-4391
▁active	-4392
▁server	-4393
▁thanks	-4394
▁hearing	-4395
▁believes	-4396
▁established	-4397
ady	-4398
anging	-4399
▁trend	-4400
▁holding	-4401
▁generally	-4402
▁commission	-4403
▁Camp	-4404
▁Fore	-4405
▁weak	-4406
ipping	-4407
▁homes	-4408
▁labor	-4409
▁update	-4410
▁charged	-4411
formation	-4412
▁planning	-4413
▁transport	-4414
▁PM	-4415
oman	-4416
▁Den	-4417
▁gay	-4418
▁Ryan	-4419
▁Frank	-4420
▁innov	-4421
▁south	-4422
▁belief	-4423
▁length	-4424
▁becomes	-4425
▁setting	-4426
▁stopped	-4427
CC	-4428
ius	-4429
▁Mos	-4430
acity	-4431
cknow	-4432
▁fant	-4433
▁Afghan	-4434
▁refuge	-4435
▁strike	-4436
▁therefore	-4437
win	-4438
▁Joe	-4439
▁sch	-4440
▁twice	-4441
▁attend	-4442
▁requires	-4443
▁suggested	-4444
but	-4445
ula	-4446
▁Cur	-4447
▁wel	-4448
arant	-4449
eline	-4450
uters	-4451
▁limit	-4452
▁photo	-4453
▁camera	-4454
▁sudden	-4455
▁initial	-4456
▁largely	-4457
▁managed	-4458
▁recommend	-4459
▁Government	-4460
▁introduced	-4461
▁organizations	-4462
▁90	-4463
▁Fe	-4464
inct	-4465
▁Tim	-4466
▁cook	-4467
▁categ	-4468
▁miles	-4469
▁Ukrain	-4470
▁aspect	-4471
▁closer	-4472
▁models	-4473
▁planet	-4474
▁Android	-4475
▁strateg	-4476
▁conflict	-4477
2.	-4478
icy	-4479
ancy	-4480
kins	-4481
what	-4482
▁Sol	-4483
usive	-4484
▁hasn	-4485
▁mere	-4486
▁faith	-4487
▁grant	-4488
▁Africa	-4489
▁Atlant	-4490
▁Mexico	-4491
▁mental	-4492
▁context	-4493
▁seconds	-4494
▁witness	-4495
▁Research	-4496
▁competition	-4497
!”	-4498
▁Pak	-4499
going	-4500
▁2006	-4501
▁refere	-4502
▁helping	-4503
▁variety	-4504
▁structure	-4505
ulf	-4506
uate	-4507
▁Mat	-4508
adium	-4509
▁elim	-4510
▁rich	-4511
istics	-4512
▁Peter	-4513
▁circum	-4514
▁closed	-4515
▁Supreme	-4516
▁appropri	-4517
▁entirely	-4518
han	-4519
ola	-4520
▁GOP	-4521
night	-4522
▁older	-4523
▁prove	-4524
▁murder	-4525
▁supply	-4526
▁daughter	-4527
ka	-4528
eah	-4529
kin	-4530
oted	-4531
▁Mur	-4532
▁Que	-4533
▁san	-4534
cient	-4535
▁hate	-4536
▁owner	-4537
▁Thomas	-4538
▁fourth	-4539
▁contain	-4540
▁species	-4541
owl	-4542
▁Jo	-4543
▁PC	-4544
onym	-4545
outs	-4546
▁doz	-4547
▁fle	-4548
▁raise	-4549
▁rough	-4550
▁joined	-4551
▁disease	-4552
▁identity	-4553
▁impossible	-4554
eal	-4555
run	-4556
▁die	-4557
▁guard	-4558
▁figures	-4559
▁Japanese	-4560
▁slightly	-4561
▁insurance	-4562
▁interests	-4563
▁providing	-4564
▁generation	-4565
/20	-4566
lig	-4567
rick	-4568
▁Bob	-4569
▁tim	-4570
itect	-4571
▁Gree	-4572
▁nine	-4573
▁pair	-4574
season	-4575
▁funds	-4576
▁https	-4577
▁tells	-4578
▁turns	-4579
▁acknow	-4580
▁useful	-4581
▁conclud	-4582
▁explain	-4583
▁revolution	-4584
ae	-4585
oms	-4586
rad	-4587
rig	-4588
look	-4589
cious	-4590
▁exerc	-4591
▁false	-4592
▁partner	-4593
▁victims	-4594
▁transfer	-4595
▁relatively	-4596
rd	-4597
cks	-4598
ios	-4599
mas	-4600
▁70	-4601
hens	-4602
rency	-4603
▁sequ	-4604
▁optim	-4605
▁skills	-4606
▁Toronto	-4607
▁aggress	-4608
▁animals	-4609
▁deliver	-4610
▁focused	-4611
▁killing	-4612
▁presence	-4613
▁offensive	-4614
Is	-4615
agn	-4616
uct	-4617
uke	-4618
▁Gal	-4619
▁Mer	-4620
cript	-4621
illed	-4622
ulate	-4623
▁tack	-4624
▁chair	-4625
▁tough	-4626
▁views	-4627
▁arrived	-4628
▁planned	-4629
▁committed	-4630
5.	-4631
7]	-4632
iot	-4633
lor	-4634
bing	-4635
suit	-4636
uled	-4637
▁Bet	-4638
▁pit	-4639
andom	-4640
works	-4641
▁cash	-4642
▁cells	-4643
▁steps	-4644
▁truly	-4645
▁injury	-4646
▁Virginia	-4647
OL	-4648
la	-4649
▁annual	-4650
▁assess	-4651
▁sector	-4652
▁Service	-4653
▁covered	-4654
▁District	-4655
▁operating	-4656
▁identified	-4657
ols	-4658
▁Ir	-4659
bour	-4660
iest	-4661
▁(19	-4662
▁Mary	-4663
▁Open	-4664
▁flow	-4665
ulated	-4666
▁Carol	-4667
▁banks	-4668
▁expert	-4669
▁philos	-4670
▁connection	-4671
▁conversation	-4672
3.	-4673
amm	-4674
icon	-4675
iser	-4676
▁Jon	-4677
▁ath	-4678
icide	-4679
▁trip	-4680
▁Media	-4681
▁veter	-4682
▁window	-4683
▁Richard	-4684
▁happening	-4685
▁regarding	-4686
ils	-4687
och	-4688
▁2.	-4689
arsh	-4690
▁Cru	-4691
erous	-4692
overy	-4693
▁gain	-4694
▁task	-4695
ancing	-4696
▁earth	-4697
▁College	-4698
▁balance	-4699
▁enforcement	-4700
28	-4701
5]	-4702
▁AN	-4703
roud	-4704
ucky	-4705
▁sea	-4706
▁uns	-4707
phone	-4708
▁Time	-4709
▁radio	-4710
▁agreed	-4711
▁batter	-4712
▁waiting	-4713
▁exchange	-4714
▁finished	-4715
▁scientists	-4716
oty	-4717
reci	-4718
▁194	-4719
ashed	-4720
▁Amaz	-4721
▁Rock	-4722
▁beer	-4723
iation	-4724
▁Syrian	-4725
▁starts	-4726
▁husband	-4727
▁developing	-4728
9.	-4729
isf	-4730
▁Tra	-4731
agues	-4732
enses	-4733
▁2018	-4734
▁Good	-4735
▁novel	-4736
▁decide	-4737
▁please	-4738
▁Lee	-4739
▁kid	-4740
isted	-4741
▁scale	-4742
▁changing	-4743
▁spokesman	-4744
▁Australian	-4745
▁Foundation	-4746
DA	-4747
asy	-4748
prof	-4749
xual	-4750
▁ben	-4751
andon	-4752
▁farm	-4753
▁sust	-4754
▁River	-4755
▁catch	-4756
▁click	-4757
▁Before	-4758
▁script	-4759
▁Science	-4760
▁revenue	-4761
▁absolutely	-4762
PS	-4763
ania	-4764
anned	-4765
azine	-4766
obody	-4767
▁symb	-4768
▁Group	-4769
▁Still	-4770
▁gender	-4771
▁Meanwhile	-4772
▁operation	-4773
▁IN	-4774
pret	-4775
▁Mem	-4776
▁fol	-4777
▁insp	-4778
ansion	-4779
▁appoint	-4780
▁failure	-4781
▁traffic	-4782
▁speaking	-4783
▁Francisco	-4784
▁potentially	-4785
CH	-4786
do	-4787
ias	-4788
ups	-4789
▁Rod	-4790
tered	-4791
▁wood	-4792
▁apart	-4793
▁micro	-4794
▁Public	-4795
▁losing	-4796
▁remind	-4797
▁ruling	-4798
▁removed	-4799
▁beautiful	-4800
▁determine	-4801
ava	-4802
ket	-4803
real	-4804
anche	-4805
▁ship	-4806
ortion	-4807
stream	-4808
▁union	-4809
▁depend	-4810
▁healthy	-4811
▁located	-4812
▁Williams	-4813
▁elements	-4814
▁mentioned	-4815
▁scientific	-4816
-20	-4817
vis	-4818
wing	-4819
▁dat	-4820
idden	-4821
odies	-4822
rible	-4823
stein	-4824
▁About	-4825
▁photos	-4826
▁vision	-4827
▁writer	-4828
▁familiar	-4829
▁ast	-4830
centr	-4831
▁Walk	-4832
▁army	-4833
▁cuts	-4834
▁files	-4835
inating	-4836
▁internal	-4837
rastructure	-4838
CA	-4839
▁Jes	-4840
▁arr	-4841
verse	-4842
▁Prot	-4843
▁cann	-4844
▁unit	-4845
makers	-4846
▁sched	-4847
▁belong	-4848
▁consult	-4849
▁suggests	-4850
▁surprise	-4851
▁standards	-4852
▁discovered	-4853
▁45	-4854
▁ST	-4855
aded	-4856
ocal	-4857
rees	-4858
▁Fer	-4859
ading	-4860
▁Mass	-4861
▁Steve	-4862
▁units	-4863
▁carried	-4864
▁measures	-4865
▁purchase	-4866
▁collection	-4867
HL	-4868
aren	-4869
lets	-4870
▁USA	-4871
▁Saud	-4872
▁Sing	-4873
▁wish	-4874
ocracy	-4875
▁abuse	-4876
▁agent	-4877
▁tweet	-4878
▁Though	-4879
▁Bitcoin	-4880
▁intended	-4881
▁Secretary	-4882
▁apparently	-4883
IG	-4884
fe	-4885
ano	-4886
spe	-4887
ache	-4888
gypt	-4889
▁Nor	-4890
▁Show	-4891
▁jail	-4892
▁none	-4893
ampion	-4894
atures	-4895
▁feels	-4896
▁Andrew	-4897
▁adjust	-4898
▁bigger	-4899
▁plenty	-4900
▁otherwise	-4901
▁alternative	-4902
▁immigration	-4903
——	-4904
state	-4905
under	-4906
▁Year	-4907
▁Maybe	-4908
▁Watch	-4909
▁weren	-4910
▁bought	-4911
▁spirit	-4912
▁Project	-4913
▁remained	-4914
▁vehicles	-4915
▁decisions	-4916
▁convention	-4917
pm	-4918
▁Ok	-4919
When	-4920
▁Dan	-4921
▁skin	-4922
ipment	-4923
▁filed	-4924
▁severe	-4925
standing	-4926
▁dropped	-4927
▁elected	-4928
▁maintain	-4929
▁Ve	-4930
hand	-4931
lymp	-4932
▁500	-4933
▁lob	-4934
▁odd	-4935
▁Guard	-4936
▁Right	-4937
▁react	-4938
ologies	-4939
________	-4940
▁amazing	-4941
▁keeping	-4942
▁selling	-4943
▁professor	-4944
▁originally	-4945
9]	-4946
ST	-4947
mond	-4948
isher	-4949
▁cold	-4950
▁tests	-4951
▁humans	-4952
6]	-4953
nel	-4954
rie	-4955
▁Ra	-4956
iler	-4957
▁Pac	-4958
▁nar	-4959
gment	-4960
oking	-4961
▁Sign	-4962
▁equal	-4963
▁multi	-4964
▁spect	-4965
▁taxes	-4966
▁frustr	-4967
▁troops	-4968
▁experts	-4969
▁accounts	-4970
▁expensive	-4971
▁environmental	-4972
,'	-4973
DP	-4974
sen	-4975
▁Ol	-4976
▁Lin	-4977
▁pil	-4978
enced	-4979
▁Charl	-4980
▁Chief	-4981
▁Offic	-4982
▁Olymp	-4983
▁adapt	-4984
ruption	-4985
▁faster	-4986
▁unless	-4987
▁Conserv	-4988
▁walking	-4989
▁presented	-4990
met	-4991
▁row	-4992
▁vir	-4993
orage	-4994
oving	-4995
▁Each	-4996
▁2015,	-4997
ressive	-4998
▁cancer	-4999
▁carbon	-5000
▁transl	-5001
▁factors	-5002
▁accident	-5003
▁reporting	-5004
▁developers	-5005
zer	-5006
▁RE	-5007
noon	-5008
▁Spr	-5009
▁iPh	-5010
eless	-5011
▁talks	-5012
idering	-5013
▁Central	-5014
▁dismiss	-5015
▁corporate	-5016
-4	-5017
hi	-5018
Don	-5019
aste	-5020
▁cas	-5021
▁fif	-5022
▁ton	-5023
▁vul	-5024
▁academ	-5025
▁survey	-5026
▁religion	-5027
▁university	-5028
free	-5029
▁CEO	-5030
▁gar	-5031
ureau	-5032
▁Mount	-5033
▁sides	-5034
▁sport	-5035
▁System	-5036
▁detect	-5037
▁famous	-5038
▁listen	-5039
▁bringing	-5040
▁concentr	-5041
▁experiment	-5042
gar	-5043
▁MP	-5044
acks	-5045
▁NBA	-5046
apers	-5047
icate	-5048
place	-5049
ronic	-5050
▁Matt	-5051
▁clim	-5052
▁heav	-5053
▁seek	-5054
▁princ	-5055
▁challenges	-5056
▁increasingly	-5057
gn	-5058
ynam	-5059
▁crew	-5060
▁sale	-5061
▁minute	-5062
ployment	-5063
▁refused	-5064
▁Michigan	-5065
▁soldiers	-5066
▁percentage	-5067
23	-5068
▁Ms	-5069
ests	-5070
▁Cub	-5071
nergy	-5072
oston	-5073
▁Bern	-5074
▁Phot	-5075
▁mand	-5076
▁migr	-5077
Americ	-5078
▁Egypt	-5079
▁resol	-5080
▁paying	-5081
▁guarant	-5082
▁tradition	-5083
▁neighborhood	-5084
MA	-5085
uit	-5086
▁Ma	-5087
osen	-5088
icial	-5089
▁arms	-5090
▁Color	-5091
▁Human	-5092
▁apply	-5093
▁broke	-5094
▁rapid	-5095
▁tight	-5096
▁Second	-5097
▁reserv	-5098
▁stands	-5099
▁Federal	-5100
▁imagine	-5101
▁afternoon	-5102
▁determined	-5103
▁ultimately	-5104
▁infrastructure	-5105
ini	-5106
alls	-5107
gent	-5108
uous	-5109
▁Squ	-5110
▁rent	-5111
▁concl	-5112
ception	-5113
▁Amazon	-5114
▁instit	-5115
▁Develop	-5116
▁cultural	-5117
▁authority	-5118
▁newspaper	-5119
UT	-5120
pet	-5121
abis	-5122
ader	-5123
anda	-5124
fere	-5125
raud	-5126
vant	-5127
▁din	-5128
▁sad	-5129
▁Fire	-5130
▁mode	-5131
▁roll	-5132
▁vast	-5133
▁coord	-5134
▁Social	-5135
▁animal	-5136
▁broken	-5137
▁random	-5138
▁territ	-5139
▁univers	-5140
▁greatest	-5141
▁equipment	-5142
▁technical	-5143
IM	-5144
RA	-5145
hy	-5146
For	-5147
▁3,	-5148
▁id	-5149
▁NAS	-5150
▁Sum	-5151
▁Top	-5152
▁Web	-5153
▁Book	-5154
▁Team	-5155
▁tourn	-5156
▁worry	-5157
▁column	-5158
▁flight	-5159
▁switch	-5160
▁standing	-5161
▁emergency	-5162
▁appearance	-5163
▁applications	-5164
ht	-5165
▁AD	-5166
▁bull	-5167
person	-5168
▁Prime	-5169
▁breat	-5170
▁delay	-5171
▁hopes	-5172
related	-5173
▁explos	-5174
▁struct	-5175
▁appreci	-5176
▁herself	-5177
▁agencies	-5178
▁attorney	-5179
24	-5180
My	-5181
ita	-5182
▁ML	-5183
oral	-5184
umber	-5185
▁brow	-5186
▁clot	-5187
▁Somet	-5188
▁coast	-5189
▁motor	-5190
▁surve	-5191
▁passing	-5192
▁streets	-5193
▁declined	-5194
▁offering	-5195
▁materials	-5196
arp	-5197
hab	-5198
phas	-5199
ruit	-5200
▁Upd	-5201
▁nav	-5202
uster	-5203
▁Army	-5204
▁dram	-5205
▁marg	-5206
▁trig	-5207
ivered	-5208
▁Medic	-5209
▁weather	-5210
▁aircraft	-5211
▁allegedly	-5212
▁positions	-5213
▁politicians	-5214
▁specifically	-5215
Re	-5216
col	-5217
▁Av	-5218
▁Home	-5219
▁Lake	-5220
terday	-5221
▁lived	-5222
▁regime	-5223
ulations	-5224
▁involve	-5225
▁minimum	-5226
abilities	-5227
▁capacity	-5228
▁contrast	-5229
▁domestic	-5230
▁possibly	-5231
()	-5232
awn	-5233
pay	-5234
illa	-5235
orry	-5236
▁Rad	-5237
▁heat	-5238
▁sets	-5239
▁trib	-5240
icious	-5241
ocking	-5242
▁Space	-5243
▁girls	-5244
▁Middle	-5245
▁gather	-5246
▁governments	-5247
##	-5248
TM	-5249
▁;	-5250
▁32	-5251
▁195	-5252
▁eat	-5253
▁fly	-5254
▁rid	-5255
class	-5256
▁1990	-5257
▁Life	-5258
▁subs	-5259
▁2016.	-5260
▁Force	-5261
▁films	-5262
▁fired	-5263
▁youth	-5264
▁Boston	-5265
▁Econom	-5266
▁broadcast	-5267
-5	-5268
coh	-5269
idel	-5270
▁Ari	-5271
▁Mel	-5272
▁Ram	-5273
▁Whe	-5274
▁Hist	-5275
▁Note	-5276
ashion	-5277
illing	-5278
uation	-5279
▁Paris	-5280
▁armed	-5281
▁pulled	-5282
▁chemical	-5283
8]	-5284
mes	-5285
▁BBC	-5286
▁Lat	-5287
▁era	-5288
▁van	-5289
▁Supp	-5290
▁bird	-5291
▁suit	-5292
▁Daily	-5293
▁shall	-5294
▁denied	-5295
▁finish	-5296
▁turning	-5297
▁elections	-5298
▁possibility	-5299
▁opportunities	-5300
!"	-5301
ey	-5302
ION	-5303
gia	-5304
▁$5	-5305
▁31	-5306
▁Ro	-5307
▁Fil	-5308
▁Sky	-5309
▁Wal	-5310
▁que	-5311
osite	-5312
▁ment	-5313
▁rail	-5314
▁Story	-5315
▁leads	-5316
▁handle	-5317
▁indeed	-5318
▁talked	-5319
▁vulner	-5320
▁widely	-5321
▁Journal	-5322
▁married	-5323
▁wearing	-5324
▁numerous	-5325
▁proposal	-5326
▁delivered	-5327
yr	-5328
▁36	-5329
▁AL	-5330
host	-5331
road	-5332
▁Rub	-5333
▁hyp	-5334
▁Best	-5335
▁Stan	-5336
▁Wood	-5337
▁bond	-5338
▁Power	-5339
▁error	-5340
▁spons	-5341
▁valid	-5342
▁weapon	-5343
▁Director	-5344
▁obviously	-5345
▁seriously	-5346
▁supporting	-5347
va	-5348
──	-5349
cel	-5350
oma	-5351
rum	-5352
▁Fed	-5353
anged	-5354
▁View	-5355
▁prin	-5356
▁rain	-5357
▁Saudi	-5358
▁Women	-5359
▁renew	-5360
respond	-5361
▁Korean	-5362
▁corner	-5363
▁master	-5364
▁powers	-5365
▁default	-5366
▁markets	-5367
▁package	-5368
▁conducted	-5369
▁estimated	-5370
▁protection	-5371
▁statements	-5372
ato	-5373
cho	-5374
▁Hy	-5375
▁ID	-5376
life	-5377
▁Lib	-5378
▁aid	-5379
ishes	-5380
▁Only	-5381
▁tele	-5382
▁Three	-5383
▁discl	-5384
▁forms	-5385
▁motiv	-5386
▁proud	-5387
▁solar	-5388
▁Island	-5389
▁spring	-5390
▁council	-5391
▁license	-5392
▁seasons	-5393
▁trouble	-5394
▁affected	-5395
▁pictures	-5396
▁architect	-5397
can	-5398
top	-5399
arks	-5400
▁Ill	-5401
▁Mot	-5402
▁Nov	-5403
▁nut	-5404
▁Blue	-5405
▁Long	-5406
▁Road	-5407
▁clin	-5408
▁shop	-5409
▁zero	-5410
▁Where	-5411
ionally	-5412
▁Labour	-5413
▁agents	-5414
▁iPhone	-5415
▁Muslims	-5416
▁pointed	-5417
▁Carolina	-5418
▁declared	-5419
▁explains	-5420
▁initially	-5421
▁significantly	-5422
,[	-5423
IP	-5424
olit	-5425
ownt	-5426
▁thr	-5427
▁Vict	-5428
▁hurt	-5429
▁tact	-5430
▁tree	-5431
00,000	-5432
▁prime	-5433
▁suppl	-5434
▁advice	-5435
▁voting	-5436
▁advance	-5437
▁methods	-5438
▁division	-5439
▁recorded	-5440
▁construct	-5441
No	-5442
sts	-5443
cean	-5444
rier	-5445
▁Dou	-5446
▁Fig	-5447
▁Vol	-5448
▁sac	-5449
▁tun	-5450
hered	-5451
▁Brad	-5452
▁Dani	-5453
▁Work	-5454
▁ends	-5455
▁Share	-5456
▁craft	-5457
▁giant	-5458
▁Energy	-5459
▁remove	-5460
▁confirm	-5461
▁circumst	-5462
▁reaction	-5463
▁confident	-5464
▁everybody	-5465
▁reference	-5466
Le	-5467
lyn	-5468
▁$4	-5469
irty	-5470
unte	-5471
▁Bus	-5472
▁CNN	-5473
▁suc	-5474
▁Sant	-5475
▁grew	-5476
▁snow	-5477
▁2014,	-5478
▁yards	-5479
▁appeal	-5480
▁athlet	-5481
▁plants	-5482
▁proced	-5483
▁basically	-5484
▁philosoph	-5485
▁responsibility	-5486
!!	-5487
IV	-5488
Tr	-5489
with	-5490
▁Its	-5491
aints	-5492
▁Carl	-5493
▁Cath	-5494
▁burn	-5495
▁zone	-5496
apping	-5497
▁bound	-5498
▁voted	-5499
estival	-5500
▁advert	-5501
▁talent	-5502
▁entered	-5503
▁totally	-5504
▁findings	-5505
▁Christmas	-5506
▁consumers	-5507
▁responded	-5508
▁appropriate	-5509
▁perspective	-5510
86	-5511
▁pra	-5512
arden	-5513
essor	-5514
▁Braz	-5515
▁cart	-5516
▁2012,	-5517
▁combat	-5518
▁degree	-5519
▁factor	-5520
▁stress	-5521
▁seeking	-5522
▁treated	-5523
▁occurred	-5524
▁discussed	-5525
▁expressed	-5526
▁secretary	-5527
cons	-5528
tion	-5529
▁Gra	-5530
▁mir	-5531
▁rot	-5532
erate	-5533
▁bike	-5534
▁Again	-5535
▁glass	-5536
▁satisf	-5537
▁warned	-5538
▁excited	-5539
▁governor	-5540
▁prospect	-5541
▁criticism	-5542
▁historical	-5543
▁reportedly	-5544
▁transition	-5545
▁PR	-5546
abin	-5547
adow	-5548
mail	-5549
▁Jul	-5550
uting	-5551
▁Scot	-5552
▁coff	-5553
▁mort	-5554
astern	-5555
called	-5556
▁incor	-5557
▁loved	-5558
▁shift	-5559
▁prompt	-5560
▁sounds	-5561
▁Seattle	-5562
▁causing	-5563
▁element	-5564
▁proceed	-5565
▁surprising	-5566
▁considering	-5567
▁institutions	-5568
33	-5569
rog	-5570
▁Cy	-5571
====	-5572
isms	-5573
▁Rev	-5574
▁gra	-5575
▁Penn	-5576
▁Prem	-5577
▁teen	-5578
▁wear	-5579
ouston	-5580
▁Polit	-5581
▁cloud	-5582
▁shape	-5583
▁buying	-5584
▁depart	-5585
▁missed	-5586
▁motion	-5587
▁capable	-5588
▁replaced	-5589
So	-5590
rist	-5591
ucks	-5592
abled	-5593
water	-5594
▁lots	-5595
porary	-5596
weight	-5597
▁Davis	-5598
▁boost	-5599
▁stret	-5600
▁fellow	-5601
▁lawyer	-5602
▁classes	-5603
▁discrim	-5604
▁follows	-5605
▁succeed	-5606
▁Pakistan	-5607
▁connected	-5608
▁interpret	-5609
▁practices	-5610
▁remaining	-5611
▁reporters	-5612
▁announcement	-5613
ss	-5614
eds	-5615
ena	-5616
urb	-5617
war	-5618
asks	-5619
▁Ell	-5620
▁emp	-5621
▁Down	-5622
▁batt	-5623
▁lock	-5624
angers	-5625
▁Techn	-5626
endment	-5627
resents	-5628
▁artist	-5629
▁editor	-5630
▁facing	-5631
▁instru	-5632
▁secure	-5633
▁observed	-5634
▁constitution	-5635
/2	-5636
PN	-5637
duc	-5638
▁Wik	-5639
cohol	-5640
lines	-5641
▁Cruz	-5642
▁Dark	-5643
▁Week	-5644
▁baby	-5645
▁upgr	-5646
▁explo	-5647
issions	-5648
istered	-5649
uration	-5650
▁Author	-5651
▁franch	-5652
▁lawsuit	-5653
▁prepared	-5654
▁entertain	-5655
ompl	-5656
▁Div	-5657
▁Hol	-5658
enger	-5659
▁Bell	-5660
▁Next	-5661
▁helps	-5662
▁legit	-5663
▁Romney	-5664
▁Turkey	-5665
▁bodies	-5666
▁centre	-5667
▁emails	-5668
▁termin	-5669
▁nations	-5670
▁readers	-5671
▁transform	-5672
▁experienced	-5673
▁quarterback	-5674
ns	-5675
ENT	-5676
Get	-5677
nell	-5678
onom	-5679
▁mut	-5680
apter	-5681
ograp	-5682
▁Four	-5683
▁dial	-5684
▁hell	-5685
▁2013,	-5686
▁guide	-5687
▁panel	-5688
▁quiet	-5689
▁Thanks	-5690
▁button	-5691
▁retail	-5692
▁evening	-5693
▁neither	-5694
▁offense	-5695
▁updates	-5696
▁identify	-5697
▁substant	-5698
▁scheduled	-5699
▁Afghanistan	-5700
7.	-5701
OW	-5702
▁4.	-5703
▁ec	-5704
▁Haw	-5705
▁Sov	-5706
▁Tit	-5707
▁apps	-5708
▁fish	-5709
▁grab	-5710
▁pure	-5711
▁ride	-5712
sembly	-5713
▁Organ	-5714
▁pitch	-5715
▁shots	-5716
▁picked	-5717
▁videos	-5718
▁liberal	-5719
▁objects	-5720
▁reduced	-5721
▁shouldn	-5722
▁sitting	-5723
▁distance	-5724
▁injuries	-5725
▁activists	-5726
▁expansion	-5727
▁investors	-5728
▁surprised	-5729
5)	-5730
uls	-5731
▁PS	-5732
comm	-5733
long	-5734
mosp	-5735
▁$10	-5736
▁Aff	-5737
ockey	-5738
▁Real	-5739
ounded	-5740
▁2016,	-5741
▁schol	-5742
▁Brazil	-5743
▁thinks	-5744
ollywood	-5745
▁library	-5746
▁opposed	-5747
▁patient	-5748
▁approved	-5749
▁collabor	-5750
▁targeted	-5751
▁confidence	-5752
-8	-5753
rid	-5754
imal	-5755
ller	-5756
otic	-5757
rant	-5758
▁Ins	-5759
▁Jews	-5760
ternal	-5761
▁causes	-5762
▁emphas	-5763
▁Houston	-5764
▁playoff	-5765
▁privacy	-5766
▁suffered	-5767
▁versions	-5768
▁completed	-5769
▁typically	-5770
▁represents	-5771
asp	-5772
▁33	-5773
▁DC	-5774
erry	-5775
greg	-5776
ilty	-5777
ooth	-5778
▁Far	-5779
▁hol	-5780
▁ske	-5781
▁Eric	-5782
▁Harr	-5783
▁Putin	-5784
▁faced	-5785
▁folks	-5786
▁doctor	-5787
▁Ukraine	-5788
▁predict	-5789
▁subsequ	-5790
▁warning	-5791
▁improved	-5792
▁restaurant	-5793
▁circumstances	-5794
▁controversial	-5795
▁relationships	-5796
66	-5797
emen	-5798
rawn	-5799
▁Bat	-5800
▁Wat	-5801
acking	-5802
arters	-5803
▁faces	-5804
▁songs	-5805
essions	-5806
unction	-5807
▁native	-5808
▁fighters	-5809
▁publicly	-5810
▁alongside	-5811
▁ourselves	-5812
▁differences	-5813
ala	-5814
gor	-5815
obe	-5816
▁GM	-5817
chen	-5818
etic	-5819
oken	-5820
▁(20	-5821
▁Rog	-5822
acter	-5823
▁bare	-5824
▁empt	-5825
▁Camer	-5826
▁route	-5827
▁begins	-5828
▁stream	-5829
▁Charles	-5830
▁Jackson	-5831
▁heavily	-5832
▁instruct	-5833
▁purposes	-5834
▁buildings	-5835
▁immigrants	-5836
▁officially	-5837
▁effectively	-5838
8.	-5839
="	-5840
PD	-5841
def	-5842
isp	-5843
▁3.	-5844
▁Kh	-5845
aped	-5846
ocol	-5847
razy	-5848
▁Kim	-5849
▁Sar	-5850
▁enh	-5851
asure	-5852
▁adds	-5853
▁storm	-5854
▁Columb	-5855
▁approx	-5856
▁client	-5857
▁pieces	-5858
▁accompl	-5859
▁caption	-5860
▁signing	-5861
▁creation	-5862
▁essentially	-5863
,’	-5864
TV	-5865
hus	-5866
▁4,	-5867
▁dim	-5868
agers	-5869
reens	-5870
utors	-5871
▁Kenn	-5872
▁Swed	-5873
▁Test	-5874
▁plus	-5875
▁Young	-5876
▁ordered	-5877
▁threats	-5878
▁consistent	-5879
PU	-5880
Sh	-5881
acle	-5882
oked	-5883
▁Hor	-5884
▁ing	-5885
ocket	-5886
uable	-5887
▁Club	-5888
▁Ohio	-5889
▁jour	-5890
▁plot	-5891
▁Board	-5892
▁fraud	-5893
▁quant	-5894
▁risks	-5895
▁withd	-5896
amental	-5897
▁Miller	-5898
▁cooper	-5899
▁filled	-5900
▁stores	-5901
▁struck	-5902
▁Further	-5903
▁emotional	-5904
LA	-5905
TA	-5906
azi	-5907
iat	-5908
▁(4	-5909
▁Er	-5910
burg	-5911
care	-5912
dule	-5913
uild	-5914
▁Way	-5915
▁god	-5916
▁hat	-5917
▁scr	-5918
allas	-5919
▁Asia	-5920
▁acts	-5921
▁inqu	-5922
▁pray	-5923
▁tort	-5924
▁wire	-5925
▁Brook	-5926
▁Child	-5927
▁Elect	-5928
▁decre	-5929
▁heads	-5930
▁signs	-5931
▁Contin	-5932
▁remark	-5933
▁string	-5934
▁ancient	-5935
▁injured	-5936
▁ongoing	-5937
▁approval	-5938
▁properties	-5939
rip	-5940
▁Ut	-5941
ador	-5942
▁Boy	-5943
▁Tay	-5944
▁alt	-5945
chers	-5946
▁diss	-5947
▁forg	-5948
▁Kevin	-5949
▁enemy	-5950
▁usual	-5951
ensions	-5952
iveness	-5953
▁argued	-5954
▁narrow	-5955
▁nearby	-5956
▁unable	-5957
▁artists	-5958
▁matters	-5959
▁somewhat	-5960
fortunately	-5961
▁commitment	-5962
▁correspond	-5963
▁disappoint	-5964
▁parliament	-5965
▁experiences	-5966
▁surrounding	-5967
bec	-5968
sex	-5969
▁TO	-5970
▁du	-5971
iami	-5972
▁Max	-5973
▁bug	-5974
ellow	-5975
mates	-5976
enture	-5977
▁bench	-5978
▁moves	-5979
▁Valley	-5980
▁assets	-5981
▁listed	-5982
▁storage	-5983
▁advanced	-5984
▁magazine	-5985
.[2	-5986
ette	-5987
ilit	-5988
illy	-5989
▁Cle	-5990
▁Ire	-5991
▁Men	-5992
▁Ron	-5993
▁hun	-5994
▁Card	-5995
▁Jord	-5996
▁pled	-5997
▁wave	-5998
active	-5999
nesota	-6000
▁facts	-6001
▁joint	-6002
▁posts	-6003
▁thank	-6004
▁basket	-6005
▁brings	-6006
▁excell	-6007
▁output	-6008
▁prohib	-6009
▁abandon	-6010
▁drivers	-6011
▁returns	-6012
▁volunte	-6013
▁Colorado	-6014
▁combined	-6015
▁examples	-6016
▁inspired	-6017
▁receiving	-6018
▁repeatedly	-6019
▁tournament	-6020
/0	-6021
▁af	-6022
Tube	-6023
anes	-6024
▁sem	-6025
itors	-6026
ulous	-6027
▁Arch	-6028
▁desk	-6029
▁diet	-6030
▁phen	-6031
▁subm	-6032
isters	-6033
▁entry	-6034
▁grown	-6035
▁stars	-6036
▁trick	-6037
ivalent	-6038
▁acting	-6039
▁attrib	-6040
▁deaths	-6041
▁forget	-6042
▁guilty	-6043
▁harder	-6044
▁pushed	-6045
▁square	-6046
▁visual	-6047
▁Stephen	-6048
▁younger	-6049
▁allegations	-6050
▁necessarily	-6051
▁34	-6052
game	-6053
oves	-6054
▁Exp	-6055
anges	-6056
▁drag	-6057
▁seat	-6058
▁tech	-6059
▁warm	-6060
iously	-6061
▁Moore	-6062
▁plane	-6063
▁weird	-6064
illance	-6065
▁Rights	-6066
▁calcul	-6067
▁crimes	-6068
▁desire	-6069
▁merely	-6070
▁promin	-6071
▁sought	-6072
▁writes	-6073
▁Georgia	-6074
▁contains	-6075
▁describe	-6076
▁detailed	-6077
▁employee	-6078
PR	-6079
law	-6080
▁49	-6081
alty	-6082
enda	-6083
ican	-6084
▁Hen	-6085
▁Vis	-6086
▁flo	-6087
▁hur	-6088
icing	-6089
sters	-6090
▁Lord	-6091
▁auth	-6092
▁guns	-6093
▁sick	-6094
▁blame	-6095
▁chart	-6096
▁kinds	-6097
▁moral	-6098
▁bright	-6099
▁contest	-6100
▁somehow	-6101
▁exercise	-6102
▁Minnesota	-6103
▁acknowled	-6104
▁colleagues	-6105
▁consequences	-6106
75	-6107
ua	-6108
New	-6109
ours	-6110
▁Gen	-6111
▁unus	-6112
▁Build	-6113
▁input	-6114
▁Sports	-6115
▁leaves	-6116
▁myster	-6117
▁applied	-6118
▁promise	-6119
▁currency	-6120
▁struggle	-6121
▁suddenly	-6122
▁thoughts	-6123
▁selection	-6124
▁terrorist	-6125
▁expression	-6126
▁personally	-6127
cipl	-6128
▁Ken	-6129
▁Ret	-6130
▁lie	-6131
▁tom	-6132
▁wid	-6133
esome	-6134
stood	-6135
▁Adam	-6136
▁Ford	-6137
▁eval	-6138
▁dynam	-6139
▁label	-6140
▁atmosp	-6141
▁height	-6142
▁Company	-6143
▁Perhaps	-6144
▁falling	-6145
▁strange	-6146
▁opposite	-6147
▁immediate	-6148
▁industrial	-6149
▁resolution	-6150
ml	-6151
zy	-6152
▁Old	-6153
celer	-6154
iency	-6155
style	-6156
▁Hard	-6157
▁narr	-6158
owered	-6159
▁2014.	-6160
▁argue	-6161
▁datab	-6162
▁Joseph	-6163
▁Ireland	-6164
▁alcohol	-6165
▁crucial	-6166
▁maximum	-6167
▁suicide	-6168
▁situations	-6169
▁threatened	-6170
▁Palestinian	-6171
----------------	-6172
Ar	-6173
awa	-6174
adel	-6175
▁Dig	-6176
▁Van	-6177
▁lit	-6178
arity	-6179
ffect	-6180
▁flag	-6181
▁fort	-6182
▁gang	-6183
▁Class	-6184
▁metal	-6185
▁flying	-6186
▁linked	-6187
▁retire	-6188
........	-6189
▁session	-6190
▁violent	-6191
▁champion	-6192
▁teachers	-6193
▁locations	-6194
▁marketing	-6195
▁opponents	-6196
29	-6197
SS	-6198
ko	-6199
▁AT	-6200
▁Di	-6201
ogan	-6202
word	-6203
▁Cop	-6204
▁DNA	-6205
▁bid	-6206
▁dry	-6207
▁rum	-6208
hetic	-6209
itals	-6210
▁Wild	-6211
▁blow	-6212
▁dipl	-6213
▁tiny	-6214
gender	-6215
▁2011,	-6216
▁Miami	-6217
▁Thank	-6218
▁chain	-6219
▁owned	-6220
▁Dallas	-6221
▁hoping	-6222
▁newslet	-6223
▁extended	-6224
▁dedicated	-6225
▁estimates	-6226
▁competitive	-6227
34	-6228
6.	-6229
TC	-6230
abb	-6231
▁Jr	-6232
alle	-6233
apse	-6234
keep	-6235
onna	-6236
▁End	-6237
acked	-6238
inals	-6239
produ	-6240
▁Cast	-6241
▁Fort	-6242
▁Sher	-6243
▁evol	-6244
ciples	-6245
▁Brian	-6246
▁Click	-6247
▁flood	-6248
▁habit	-6249
▁Source	-6250
▁Walker	-6251
▁rising	-6252
▁winner	-6253
▁battery	-6254
▁doctors	-6255
▁experim	-6256
▁articles	-6257
▁cannabis	-6258
▁machines	-6259
▁relevant	-6260
▁upcoming	-6261
▁destroyed	-6262
▁highlight	-6263
▁increases	-6264
▁involving	-6265
▁journalists	-6266
bell	-6267
ogue	-6268
usal	-6269
whel	-6270
▁CIA	-6271
▁Key	-6272
▁flu	-6273
▁shel	-6274
▁depth	-6275
▁mouth	-6276
▁Daniel	-6277
▁Season	-6278
▁config	-6279
▁desper	-6280
▁latter	-6281
▁movies	-6282
▁YouTube	-6283
▁passion	-6284
▁confront	-6285
▁networks	-6286
▁household	-6287
▁protected	-6288
▁yesterday	-6289
axy	-6290
car	-6291
nic	-6292
▁Ah	-6293
▁Kn	-6294
▁Lu	-6295
onic	-6296
▁Fam	-6297
ansas	-6298
ether	-6299
oming	-6300
▁Educ	-6301
▁isol	-6302
▁alert	-6303
▁colon	-6304
▁dress	-6305
▁hotel	-6306
▁waste	-6307
ocratic	-6308
▁Wilson	-6309
▁favour	-6310
▁formed	-6311
▁island	-6312
▁manner	-6313
▁orders	-6314
fficient	-6315
▁attempted	-6316
▁democracy	-6317
▁franchise	-6318
▁importance	-6319
▁Championship	-6320
1)	-6321
▁Ult	-6322
▁ped	-6323
▁sav	-6324
rence	-6325
▁cert	-6326
▁unem	-6327
▁Grand	-6328
▁Night	-6329
▁Water	-6330
▁fewer	-6331
▁pages	-6332
▁rally	-6333
▁Jordan	-6334
▁Soviet	-6335
▁blocks	-6336
▁campus	-6337
▁earned	-6338
▁subsid	-6339
▁realize	-6340
▁accepted	-6341
▁accurate	-6342
▁exciting	-6343
▁messages	-6344
▁regional	-6345
▁performed	-6346
▁requirements	-6347
7)	-6348
FP	-6349
IF	-6350
dit	-6351
pan	-6352
▁AC	-6353
rive	-6354
▁Bas	-6355
▁Gar	-6356
▁Hun	-6357
▁Tal	-6358
iques	-6359
▁Balt	-6360
▁Look	-6361
▁edge	-6362
▁king	-6363
▁downt	-6364
▁finds	-6365
▁squad	-6366
▁sweet	-6367
▁Review	-6368
▁behavi	-6369
▁Defense	-6370
▁Special	-6371
▁virtual	-6372
▁abortion	-6373
▁breaking	-6374
▁facility	-6375
▁essential	-6376
▁existence	-6377
hips	-6378
ideo	-6379
▁Ray	-6380
▁bon	-6381
athan	-6382
ensus	-6383
oster	-6384
utral	-6385
▁1970	-6386
▁hall	-6387
▁tank	-6388
ilarly	-6389
▁Games	-6390
▁deals	-6391
▁fixed	-6392
▁theme	-6393
▁nobody	-6394
▁perman	-6395
▁profit	-6396
▁scored	-6397
▁studio	-6398
▁Network	-6399
▁clients	-6400
▁knowing	-6401
▁pushing	-6402
▁featured	-6403
▁intention	-6404
▁fundamental	-6405
100	-6406
dro	-6407
▁(6	-6408
rors	-6409
▁Did	-6410
▁NASA	-6411
▁Turn	-6412
▁lies	-6413
▁liqu	-6414
▁ring	-6415
luding	-6416
orders	-6417
unning	-6418
▁Jason	-6419
▁links	-6420
▁phase	-6421
twitter	-6422
▁Agency	-6423
▁Barack	-6424
▁Disney	-6425
▁cameras	-6426
▁channel	-6427
▁defined	-6428
▁roughly	-6429
▁serving	-6430
▁baseball	-6431
▁carrying	-6432
▁congress	-6433
▁unlikely	-6434
▁mainstream	-6435
EST	-6436
esh	-6437
mpt	-6438
owa	-6439
▁NE	-6440
▁pu	-6441
otal	-6442
roit	-6443
▁Arm	-6444
▁Win	-6445
▁egg	-6446
▁Coll	-6447
▁Conf	-6448
▁Such	-6449
▁east	-6450
▁flat	-6451
▁ties	-6452
▁wins	-6453
pected	-6454
▁Italy	-6455
▁navig	-6456
▁river	-6457
eration	-6458
ologist	-6459
▁Invest	-6460
▁extent	-6461
▁bitcoin	-6462
▁mistake	-6463
▁moments	-6464
▁trading	-6465
▁attacked	-6466
▁attempts	-6467
▁discover	-6468
▁drinking	-6469
▁opponent	-6470
▁properly	-6471
▁referred	-6472
▁excellent	-6473
▁functions	-6474
▁frequently	-6475
▁resistance	-6476
▁combination	-6477
▁manufacture	-6478
▁temperature	-6479
▁Constitution	-6480
▁communication	-6481
ao	-6482
GBT	-6483
aza	-6484
htt	-6485
▁37	-6486
ingu	-6487
that	-6488
ushed	-6489
▁Land	-6490
▁Nick	-6491
▁boss	-6492
▁fold	-6493
▁iron	-6494
esters	-6495
▁2010,	-6496
▁Jesus	-6497
▁fifth	-6498
▁assume	-6499
▁sample	-6500
▁fashion	-6501
▁generate	-6502
▁Hollywood	-6503
▁comfortable	-6504
▁complicated	-6505
35	-6506
phy	-6507
empl	-6508
iana	-6509
▁Ann	-6510
▁Sea	-6511
atell	-6512
onsin	-6513
▁Care	-6514
▁resc	-6515
▁stim	-6516
ceived	-6517
▁Cross	-6518
▁actor	-6519
▁debut	-6520
▁domin	-6521
▁forth	-6522
▁medic	-6523
▁simpl	-6524
▁enthus	-6525
▁transp	-6526
▁Society	-6527
▁founded	-6528
▁admitted	-6529
▁anywhere	-6530
▁customer	-6531
▁northern	-6532
▁refugees	-6533
▁requests	-6534
▁terrible	-6535
▁Unfortunately	-6536
lv	-6537
alo	-6538
dis	-6539
▁Pen	-6540
▁unp	-6541
redit	-6542
▁Ariz	-6543
▁Bull	-6544
▁Cost	-6545
▁flex	-6546
▁pool	-6547
▁puts	-6548
▁Labor	-6549
▁honor	-6550
▁laugh	-6551
▁likes	-6552
▁split	-6553
▁coffee	-6554
▁scheme	-6555
isconsin	-6556
▁radical	-6557
▁creative	-6558
▁province	-6559
▁Administr	-6560
▁efficient	-6561
▁suffering	-6562
▁constantly	-6563
▁equivalent	-6564
▁impressive	-6565
▁regulations	-6566
▁participants	-6567
2)	-6568
88	-6569
DS	-6570
LE	-6571
vy	-6572
afe	-6573
sea	-6574
▁Py	-6575
inem	-6576
osis	-6577
▁bag	-6578
▁ren	-6579
verty	-6580
▁Love	-6581
▁shif	-6582
intend	-6583
▁cheap	-6584
▁mixed	-6585
▁recon	-6586
▁explan	-6587
▁sister	-6588
inations	-6589
▁Pacific	-6590
▁journey	-6591
▁unknown	-6592
▁welcome	-6593
▁somebody	-6594
▁Development	-6595
</	-6596
boy	-6597
ded	-6598
eda	-6599
iner	-6600
owed	-6601
▁Dut	-6602
▁bat	-6603
▁mal	-6604
▁mob	-6605
▁syn	-6606
▁1980	-6607
▁Full	-6608
▁Take	-6609
▁Tony	-6610
▁sees	-6611
▁wake	-6612
▁Among	-6613
▁Enter	-6614
▁empty	-6615
▁magic	-6616
▁oblig	-6617
▁pregn	-6618
▁proof	-6619
▁topic	-6620
▁manage	-6621
American	-6622
▁Kingdom	-6623
▁closely	-6624
▁explore	-6625
▁poverty	-6626
anchester	-6627
▁terrorism	-6628
▁comparison	-6629
▁surveillance	-6630
36	-6631
bel	-6632
west	-6633
▁Mic	-6634
▁Pan	-6635
▁Make	-6636
▁mine	-6637
▁2013.	-6638
▁Linux	-6639
▁goods	-6640
▁Global	-6641
▁diplom	-6642
ographic	-6643
▁authors	-6644
▁capture	-6645
▁extract	-6646
▁sharing	-6647
▁visible	-6648
▁Attorney	-6649
▁consumer	-6650
▁obtained	-6651
▁promised	-6652
▁protests	-6653
▁realized	-6654
▁Wisconsin	-6655
▁resulting	-6656
▁somewhere	-6657
▁corruption	-6658
37	-6659
era	-6660
ria	-6661
wan	-6662
▁Os	-6663
▁Sn	-6664
list	-6665
olis	-6666
▁Hel	-6667
▁kit	-6668
▁pip	-6669
rific	-6670
▁Wars	-6671
▁evil	-6672
▁loan	-6673
▁rape	-6674
gorith	-6675
▁bunch	-6676
▁comic	-6677
▁stood	-6678
▁upper	-6679
ocation	-6680
▁eating	-6681
▁ending	-6682
▁limits	-6683
▁winter	-6684
▁decline	-6685
▁sending	-6686
▁updated	-6687
▁Business	-6688
▁Community	-6689
▁encourage	-6690
▁institution	-6691
Bl	-6692
II	-6693
To	-6694
ati	-6695
▁Ap	-6696
▁Gi	-6697
▁SC	-6698
▁Dam	-6699
▁sam	-6700
ivery	-6701
woman	-6702
▁Josh	-6703
▁Plan	-6704
▁rein	-6705
▁vice	-6706
▁wage	-6707
▁Stand	-6708
▁crash	-6709
▁diagn	-6710
▁paint	-6711
▁polls	-6712
oration	-6713
▁deploy	-6714
▁Arizona	-6715
▁Detroit	-6716
▁classic	-6717
▁promote	-6718
▁Catholic	-6719
▁chairman	-6720
▁payments	-6721
▁component	-6722
▁concluded	-6723
▁conscious	-6724
▁extensive	-6725
▁perfectly	-6726
3)	-6727
],	-6728
▁\	-6729
Con	-6730
VER	-6731
aze	-6732
izz	-6733
▁38	-6734
aven	-6735
▁bra	-6736
andal	-6737
imore	-6738
▁Call	-6739
▁Iowa	-6740
▁Java	-6741
▁purs	-6742
ellect	-6743
▁elite	-6744
▁stuck	-6745
▁Steven	-6746
▁deeply	-6747
▁Finally	-6748
▁cutting	-6749
▁disaster	-6750
▁producer	-6751
▁copyright	-6752
▁developer	-6753
▁literally	-6754
▁understood	-6755
▁technologies	-6756
44	-6757
IR	-6758
ba	-6759
po	-6760
▁48	-6761
▁5,	-6762
▁AS	-6763
▁Adv	-6764
▁NHL	-6765
▁2005	-6766
▁boys	-6767
▁gear	-6768
▁Which	-6769
▁audio	-6770
▁trees	-6771
onymous	-6772
▁Taylor	-6773
▁driven	-6774
▁gotten	-6775
▁infect	-6776
▁signal	-6777
▁choices	-6778
▁noticed	-6779
▁sustain	-6780
▁Scotland	-6781
▁Southern	-6782
▁claiming	-6783
▁patterns	-6784
▁phenomen	-6785
▁selected	-6786
▁valuable	-6787
▁successfully	-6788
-9	-6789
22	-6790
:0	-6791
’,	-6792
▁’	-6793
▁$6	-6794
▁FC	-6795
▁MS	-6796
agan	-6797
aire	-6798
▁300	-6799
▁McG	-6800
▁Pay	-6801
print	-6802
▁Rick	-6803
ensity	-6804
▁2009,	-6805
▁aside	-6806
▁femin	-6807
▁decent	-6808
▁tested	-6809
▁browser	-6810
▁Northern	-6811
▁Services	-6812
▁meetings	-6813
▁schedule	-6814
▁strongly	-6815
▁emissions	-6816
▁recognize	-6817
▁represented	-6818
▁approximately	-6819
%.	-6820
All	-6821
mod	-6822
nam	-6823
ras	-6824
born	-6825
name	-6826
▁Die	-6827
▁Has	-6828
▁gap	-6829
▁Foot	-6830
▁Kell	-6831
▁dogs	-6832
▁fuck	-6833
▁meat	-6834
▁sand	-6835
▁west	-6836
rehens	-6837
▁crazy	-6838
▁disag	-6839
▁ideal	-6840
▁mayor	-6841
▁skill	-6842
viously	-6843
▁Indeed	-6844
▁assert	-6845
▁fairly	-6846
▁reward	-6847
▁amounts	-6848
▁critics	-6849
▁lawyers	-6850
▁rejected	-6851
▁Professor	-6852
▁assistant	-6853
▁Manchester	-6854
▁everywhere	-6855
▁distribution	-6856
:5	-6857
▁NY	-6858
izon	-6859
rett	-6860
▁Kat	-6861
▁rig	-6862
▁spr	-6863
▁Anth	-6864
▁Navy	-6865
▁Zeal	-6866
▁cere	-6867
▁spin	-6868
▁Start	-6869
▁adults	-6870
▁affili	-6871
▁taught	-6872
▁volume	-6873
quarters	-6874
▁dealing	-6875
▁teacher	-6876
▁hardware	-6877
▁Education	-6878
',	-6879
-7	-6880
-10	-6881
.[3	-6882
How	-6883
Pro	-6884
olt	-6885
▁Ca	-6886
athy	-6887
▁mel	-6888
▁tor	-6889
▁Gall	-6890
▁brew	-6891
▁hits	-6892
▁icon	-6893
adelph	-6894
▁2015.	-6895
▁cycle	-6896
▁drawn	-6897
▁param	-6898
▁defeat	-6899
▁exists	-6900
▁overse	-6901
▁proven	-6902
▁therap	-6903
▁precise	-6904
▁targets	-6905
▁watched	-6906
▁exposure	-6907
▁overwhel	-6908
▁universe	-6909
▁websites	-6910
▁Following	-6911
▁Sometimes	-6912
▁evolution	-6913
▁generated	-6914
▁installed	-6915
EA	-6916
OD	-6917
da	-6918
cow	-6919
iro	-6920
▁AR	-6921
▁Ep	-6922
▁Sk	-6923
aser	-6924
inch	-6925
rich	-6926
▁400	-6927
▁Ash	-6928
▁Cam	-6929
▁tow	-6930
world	-6931
▁bear	-6932
▁deck	-6933
▁fasc	-6934
friend	-6935
ighter	-6936
ulture	-6937
▁Using	-6938
▁prote	-6939
▁sympt	-6940
▁yield	-6941
▁agenda	-6942
▁hidden	-6943
▁intent	-6944
▁proved	-6945
▁Atlanta	-6946
▁Foreign	-6947
▁airport	-6948
▁aspects	-6949
▁payment	-6950
ibilities	-6951
▁algorith	-6952
▁database	-6953
▁distinct	-6954
▁apartment	-6955
▁narrative	-6956
▁registered	-6957
▁consumption	-6958
xy	-6959
ym	-6960
’.	-6961
ORE	-6962
She	-6963
ads	-6964
esy	-6965
ima	-6966
tle	-6967
▁75	-6968
fast	-6969
lock	-6970
▁Dar	-6971
▁Hom	-6972
▁Hot	-6973
▁pic	-6974
▁pod	-6975
▁wal	-6976
there	-6977
▁ISIS	-6978
▁Snow	-6979
▁Broad	-6980
▁chose	-6981
utation	-6982
adelphia	-6983
▁Reuters	-6984
▁chances	-6985
▁enjoyed	-6986
▁forever	-6987
▁letters	-6988
▁penalty	-6989
▁indicate	-6990
▁recovery	-6991
▁sentence	-6992
▁uncertain	-6993
you	-6994
▁ho	-6995
avor	-6996
edia	-6997
lder	-6998
lers	-6999
yard	-7000
▁Lew	-7001
▁Nic	-7002
▁sky	-7003
anish	-7004
iform	-7005
▁Kent	-7006
▁LGBT	-7007
▁Orig	-7008
▁embr	-7009
lights	-7010
▁Civil	-7011
▁Point	-7012
▁index	-7013
▁manip	-7014
▁sorry	-7015
▁Jersey	-7016
▁Nation	-7017
▁anyway	-7018
▁gaming	-7019
▁answers	-7020
▁convert	-7021
▁exposed	-7022
▁visited	-7023
AA	-7024
ii	-7025
lo	-7026
."[	-7027
pes	-7028
ref	-7029
uts	-7030
▁OS	-7031
cers	-7032
itar	-7033
▁anx	-7034
antic	-7035
chain	-7036
elect	-7037
essed	-7038
isers	-7039
▁Thus	-7040
▁jury	-7041
▁pace	-7042
▁sole	-7043
▁tall	-7044
tering	-7045
▁Coast	-7046
▁banned	-7047
▁condem	-7048
▁walked	-7049
▁History	-7050
▁acceler	-7051
▁comprom	-7052
▁strikes	-7053
▁captured	-7054
▁coalition	-7055
▁elsewhere	-7056
▁extension	-7057
▁Conference	-7058
▁aggressive	-7059
▁components	-7060
▁employment	-7061
▁regardless	-7062
▁communications	-7063
21	-7064
ez	-7065
200	-7066
ems	-7067
▁($	-7068
▁CD	-7069
rary	-7070
thew	-7071
utor	-7072
▁bom	-7073
▁gro	-7074
▁pal	-7075
▁Greg	-7076
▁Keep	-7077
lessly	-7078
ushing	-7079
▁Mayor	-7080
▁holds	-7081
▁escape	-7082
▁estate	-7083
▁Eastern	-7084
▁Premier	-7085
▁Program	-7086
▁Senator	-7087
▁illustr	-7088
▁matches	-7089
▁privile	-7090
▁village	-7091
▁category	-7092
▁electricity	-7093
":	-7094
-6	-7095
38	-7096
ERS	-7097
kel	-7098
ura	-7099
iger	-7100
pass	-7101
pool	-7102
ules	-7103
upid	-7104
▁Mid	-7105
▁NBC	-7106
▁rub	-7107
▁sho	-7108
▁www	-7109
iscal	-7110
▁busy	-7111
▁hadn	-7112
▁tied	-7113
▁vacc	-7114
amsung	-7115
▁Irish	-7116
▁Major	-7117
▁agric	-7118
▁bills	-7119
▁truck	-7120
ogether	-7121
▁Policy	-7122
▁Report	-7123
▁Series	-7124
▁Update	-7125
▁Victor	-7126
▁fields	-7127
▁losses	-7128
ferences	-7129
▁regions	-7130
▁stretch	-7131
▁feedback	-7132
▁supports	-7133
▁teaching	-7134
▁arguments	-7135
▁interface	-7136
▁worldwide	-7137
▁atmosphere	-7138
▁controlled	-7139
fire	-7140
foot	-7141
otes	-7142
▁cha	-7143
▁tox	-7144
Getty	-7145
etary	-7146
rical	-7147
▁Bowl	-7148
▁ESPN	-7149
▁Ital	-7150
▁Turk	-7151
▁elev	-7152
asters	-7153
▁Light	-7154
▁sight	-7155
▁taste	-7156
▁format	-7157
▁Cameron	-7158
▁Nations	-7159
▁Samsung	-7160
▁demands	-7161
▁scholars	-7162
▁southern	-7163
▁sanctions	-7164
▁philosophy	-7165
▁principles	-7166
▁Philadelphia	-7167
ja	-7168
▁%	-7169
▁44	-7170
▁9/	-7171
▁CH	-7172
ding	-7173
raid	-7174
▁Ext	-7175
pload	-7176
regon	-7177
▁Lind	-7178
▁aver	-7179
▁mail	-7180
▁Asian	-7181
▁Given	-7182
▁Spain	-7183
▁aimed	-7184
▁crypt	-7185
▁Denver	-7186
▁accomp	-7187
▁astron	-7188
▁fought	-7189
▁landsc	-7190
▁roster	-7191
▁tracks	-7192
▁Zealand	-7193
▁raising	-7194
▁veteran	-7195
▁viewers	-7196
▁worried	-7197
▁collapse	-7198
▁priority	-7199
bar	-7200
ugh	-7201
▁55	-7202
▁Es	-7203
▁OF	-7204
aron	-7205
fall	-7206
gery	-7207
Photo	-7208
agram	-7209
burgh	-7210
▁flaw	-7211
▁inev	-7212
▁loud	-7213
▁obst	-7214
▁2012.	-7215
▁Judge	-7216
▁rival	-7217
▁ruled	-7218
ulating	-7219
▁Moscow	-7220
▁comedy	-7221
▁excess	-7222
▁formal	-7223
▁incent	-7224
▁passes	-7225
▁remote	-7226
▁Matthew	-7227
▁edition	-7228
▁operate	-7229
▁profile	-7230
▁western	-7231
▁directed	-7232
▁informed	-7233
▁conclusion	-7234
▁continuing	-7235
▁struggling	-7236
27	-7237
OC	-7238
TS	-7239
ca	-7240
iti	-7241
mal	-7242
▁(5	-7243
▁Id	-7244
ndum	-7245
omin	-7246
sole	-7247
▁Ice	-7248
▁bes	-7249
▁raw	-7250
▁Ross	-7251
▁Utah	-7252
▁boot	-7253
▁gall	-7254
enders	-7255
▁2017.	-7256
▁Check	-7257
▁dozen	-7258
▁saved	-7259
▁tasks	-7260
▁Engine	-7261
▁nomine	-7262
▁phones	-7263
▁awesome	-7264
▁conspir	-7265
▁plastic	-7266
▁academic	-7267
▁Baltimore	-7268
▁incredibly	-7269
▁initiative	-7270
▁instrument	-7271
▁possession	-7272
▁reasonable	-7273
Our	-7274
gas	-7275
obs	-7276
▁LA	-7277
orse	-7278
star	-7279
▁Aud	-7280
▁Circ	-7281
▁Does	-7282
▁incl	-7283
▁murd	-7284
▁alive	-7285
▁angry	-7286
▁displ	-7287
▁entit	-7288
▁keeps	-7289
▁pilot	-7290
▁plate	-7291
▁reader	-7292
▁strict	-7293
idelines	-7294
▁Patrick	-7295
▁Without	-7296
▁portion	-7297
▁survive	-7298
▁Division	-7299
▁describes	-7300
▁advertising	-7301
RI	-7302
▁->	-7303
asts	-7304
atal	-7305
away	-7306
core	-7307
then	-7308
▁Tro	-7309
eland	-7310
inson	-7311
lfare	-7312
stone	-7313
▁Marc	-7314
▁Tenn	-7315
▁thin	-7316
▁util	-7317
50,000	-7318
▁accus	-7319
▁flash	-7320
▁innoc	-7321
▁deputy	-7322
▁arrange	-7323
▁welfare	-7324
▁reporter	-7325
▁stations	-7326
▁campaigns	-7327
▁contained	-7328
▁inflation	-7329
▁regularly	-7330
▁incredible	-7331
▁photograph	-7332
▁investigate	-7333
HS	-7334
mo	-7335
een	-7336
ora	-7337
▁52	-7338
▁Mu	-7339
▁ru	-7340
hent	-7341
▁Ont	-7342
▁Ros	-7343
▁ble	-7344
▁phr	-7345
icken	-7346
opher	-7347
otted	-7348
▁Cook	-7349
▁Price	-7350
▁exhib	-7351
▁imper	-7352
▁recip	-7353
▁chosen	-7354
▁enable	-7355
▁harass	-7356
▁houses	-7357
▁inquir	-7358
▁Iranian	-7359
▁Spanish	-7360
▁anymore	-7361
▁defence	-7362
▁prepare	-7363
▁constant	-7364
▁downtown	-7365
▁resulted	-7366
▁computers	-7367
8)	-7368
Al	-7369
Oh	-7370
PM	-7371
dy	-7372
ixt	-7373
lay	-7374
mont	-7375
rete	-7376
sell	-7377
udes	-7378
▁Dun	-7379
▁Han	-7380
▁Tri	-7381
etime	-7382
ifies	-7383
ilton	-7384
ommod	-7385
otype	-7386
▁Dead	-7387
▁Fred	-7388
▁menu	-7389
▁2008,	-7390
▁Field	-7391
▁Arabia	-7392
▁Oregon	-7393
▁inspir	-7394
▁noting	-7395
▁symbol	-7396
▁thrown	-7397
▁Stadium	-7398
▁scoring	-7399
▁controls	-7400
▁convicted	-7401
▁fantastic	-7402
▁primarily	-7403
▁Christians	-7404
▁protesters	-7405
▁techniques	-7406
▁respectively	-7407
▁automatically	-7408
▁establishment	-7409
GO	-7410
Man	-7411
▁43	-7412
▁7,	-7413
osit	-7414
▁Emp	-7415
▁Was	-7416
▁kil	-7417
force	-7418
▁Trib	-7419
▁trem	-7420
▁wing	-7421
orough	-7422
▁seats	-7423
▁thick	-7424
osexual	-7425
▁Centre	-7426
▁dollar	-7427
▁stable	-7428
▁Through	-7429
▁concert	-7430
▁neutral	-7431
▁mountain	-7432
▁complaint	-7433
▁producing	-7434
▁sufficient	-7435
▁explanation	-7436
▁participate	-7437
▁transgender	-7438
fr	-7439
abs	-7440
bal	-7441
ela	-7442
▁42	-7443
▁OK	-7444
▁ce	-7445
▁Bru	-7446
▁Set	-7447
inder	-7448
oding	-7449
pread	-7450
▁2003	-7451
▁Brew	-7452
▁Data	-7453
inding	-7454
inking	-7455
▁Beach	-7456
▁Bloom	-7457
▁Royal	-7458
▁crack	-7459
▁county	-7460
▁exceed	-7461
▁reveal	-7462
▁shares	-7463
▁slowly	-7464
▁shortly	-7465
▁typical	-7466
▁Anderson	-7467
▁entering	-7468
▁scenario	-7469
▁intellect	-7470
▁prominent	-7471
▁basketball	-7472
%,	-7473
Be	-7474
PP	-7475
UL	-7476
ta	-7477
▁Ly	-7478
▁je	-7479
anny	-7480
appy	-7481
ials	-7482
mate	-7483
▁Hay	-7484
▁UFC	-7485
allel	-7486
ancou	-7487
aning	-7488
ilipp	-7489
uties	-7490
▁1960	-7491
▁Fall	-7492
▁Fund	-7493
▁Plus	-7494
▁fees	-7495
▁Allen	-7496
▁Trade	-7497
▁shock	-7498
▁theat	-7499
▁Academ	-7500
▁Market	-7501
▁courts	-7502
▁encoun	-7503
▁engage	-7504
▁satell	-7505
▁scenes	-7506
▁thread	-7507
ependent	-7508
ologists	-7509
▁fiction	-7510
▁outcome	-7511
▁parking	-7512
▁explicit	-7513
▁reaching	-7514
▁advocates	-7515
▁depending	-7516
▁framework	-7517
▁returning	-7518
▁territory	-7519
▁collective	-7520
▁settlement	-7521
▁contributed	-7522
▁investigators	-7523
bn	-7524
One	-7525
imp	-7526
▁(“	-7527
▁ju	-7528
irms	-7529
unes	-7530
uros	-7531
▁Ale	-7532
▁Pop	-7533
prise	-7534
usted	-7535
▁2001	-7536
▁Capt	-7537
▁Fair	-7538
▁Head	-7539
▁bail	-7540
▁dict	-7541
▁rose	-7542
▁soul	-7543
▁lobby	-7544
▁monit	-7545
▁solve	-7546
▁wages	-7547
ultural	-7548
▁Austin	-7549
▁deeper	-7550
▁fallen	-7551
▁mainly	-7552
▁relief	-7553
▁titles	-7554
▁Brother	-7555
▁promises	-7556
▁establish	-7557
▁solutions	-7558
▁wonderful	-7559
▁assistance	-7560
▁electronic	-7561
▁reputation	-7562
▁challenging	-7563
▁destruction	-7564
▁programming	-7565
▁Conservative	-7566
▁intervention	-7567
95	-7568
An	-7569
].	-7570
cr	-7571
aug	-7572
lah	-7573
▁//	-7574
aska	-7575
post	-7576
▁12,	-7577
▁ads	-7578
oured	-7579
▁(200	-7580
▁2004	-7581
▁Buff	-7582
▁gift	-7583
▁laid	-7584
▁unex	-7585
ington	-7586
making	-7587
ounced	-7588
▁Queen	-7589
▁Store	-7590
▁hyper	-7591
▁liked	-7592
▁ridic	-7593
▁sharp	-7594
▁wides	-7595
▁Square	-7596
▁presum	-7597
ancouver	-7598
▁coaches	-7599
▁constit	-7600
▁enemies	-7601
▁stadium	-7602
▁warming	-7603
▁stronger	-7604
▁suspended	-7605
▁virtually	-7606
▁Parliament	-7607
▁definition	-7608
▁facilities	-7609
▁Environment	-7610
▁improvement	-7611
▁championship	-7612
agg	-7613
ali	-7614
imm	-7615
▁$7	-7616
▁5.	-7617
apes	-7618
text	-7619
▁10,	-7620
▁ABC	-7621
▁Moh	-7622
▁Ted	-7623
▁Have	-7624
▁Hind	-7625
▁Oper	-7626
▁outr	-7627
profit	-7628
▁cited	-7629
▁spell	-7630
▁urban	-7631
▁allies	-7632
▁devast	-7633
▁dozens	-7634
▁propag	-7635
▁Article	-7636
▁anybody	-7637
▁fighter	-7638
▁dramatic	-7639
▁withdraw	-7640
▁Alexander	-7641
▁attacking	-7642
▁containing	-7643
▁Information	-7644
▁publication	-7645
▁consistently	-7646
▁entertainment	-7647
▁Administration	-7648
CS	-7649
ji	-7650
sa	-7651
mad	-7652
▁IP	-7653
mann	-7654
oric	-7655
ship	-7656
▁20,	-7657
▁Som	-7658
▁Town	-7659
reedom	-7660
▁Radio	-7661
▁guest	-7662
▁overt	-7663
itarian	-7664
▁Little	-7665
▁afraid	-7666
▁branch	-7667
▁hardly	-7668
▁headed	-7669
▁legend	-7670
▁ticket	-7671
aturally	-7672
cription	-7673
▁Anthony	-7674
▁heading	-7675
▁invited	-7676
▁Guardian	-7677
▁Vancouver	-7678
▁organized	-7679
▁processing	-7680
▁recognized	-7681
▁referendum	-7682
▁engineering	-7683
▁independence	-7684
▁discrimination	-7685
%)	-7686
Un	-7687
aka	-7688
▁7.	-7689
▁9,	-7690
▁Bi	-7691
▁IC	-7692
page	-7693
sylv	-7694
umin	-7695
▁150	-7696
▁Gov	-7697
▁Jac	-7698
▁Kir	-7699
acted	-7700
orted	-7701
owing	-7702
▁Come	-7703
▁Form	-7704
▁Prop	-7705
▁Sean	-7706
▁hole	-7707
▁tone	-7708
ultane	-7709
▁Email	-7710
▁Harry	-7711
athered	-7712
▁arrive	-7713
▁barely	-7714
▁ethnic	-7715
▁notion	-7716
▁rating	-7717
leveland	-7718
▁adopted	-7719
▁citizen	-7720
▁emerged	-7721
▁unusual	-7722
itionally	-7723
▁Portland	-7724
▁external	-7725
ifications	-7726
▁reduction	-7727
▁connections	-7728
▁corporations	-7729
Cl	-7730
.00	-7731
▁$8	-7732
▁8,	-7733
arry	-7734
ione	-7735
orne	-7736
rome	-7737
▁CBS	-7738
▁Cre	-7739
▁Gun	-7740
▁Pot	-7741
▁Sir	-7742
▁Chel	-7743
▁Lear	-7744
▁Pack	-7745
▁Tour	-7746
▁luck	-7747
idency	-7748
▁forum	-7749
▁gonna	-7750
▁horse	-7751
▁loyal	-7752
▁troub	-7753
▁beauty	-7754
▁deserv	-7755
▁fiscal	-7756
▁ingred	-7757
▁perpet	-7758
▁versus	-7759
sylvania	-7760
▁Several	-7761
▁counsel	-7762
▁granted	-7763
▁accommod	-7764
▁attended	-7765
▁opinions	-7766
▁dismissed	-7767
▁technique	-7768
▁journalist	-7769
▁profession	-7770
▁widespread	-7771
▁conservatives	-7772
At	-7773
RS	-7774
oz	-7775
gun	-7776
▁Ho	-7777
▁WW	-7778
fare	-7779
oice	-7780
▁Fre	-7781
▁Mah	-7782
▁Tem	-7783
▁fee	-7784
▁ven	-7785
asion	-7786
inity	-7787
▁Budd	-7788
▁bath	-7789
▁brut	-7790
▁magn	-7791
▁milk	-7792
engers	-7793
▁1,000	-7794
▁cyber	-7795
▁plain	-7796
▁walls	-7797
▁Albert	-7798
▁Scient	-7799
▁bureau	-7800
▁convin	-7801
▁insist	-7802
▁lowest	-7803
▁taxpay	-7804
▁worker	-7805
interest	-7806
▁Connect	-7807
▁anticip	-7808
▁compens	-7809
▁degrees	-7810
▁footage	-7811
▁smoking	-7812
▁achieved	-7813
▁hospitals	-7814
▁photograp	-7815
▁principle	-7816
▁strategic	-7817
▁appreciate	-7818
▁description	-7819
▁Pennsylvania	-7820
▁manufacturing	-7821
76	-7822
auc	-7823
azz	-7824
cur	-7825
log	-7826
uan	-7827
zen	-7828
▁Ha	-7829
▁SP	-7830
Well	-7831
acts	-7832
igen	-7833
isan	-7834
ashes	-7835
otten	-7836
▁Andy	-7837
▁Leon	-7838
▁fake	-7839
▁poly	-7840
▁synt	-7841
▁tail	-7842
uction	-7843
▁2017,	-7844
▁Early	-7845
▁Greek	-7846
▁Music	-7847
▁Never	-7848
▁Roman	-7849
▁Stone	-7850
▁blast	-7851
▁roads	-7852
▁ships	-7853
▁upset	-7854
▁voter	-7855
▁Having	-7856
▁Murray	-7857
▁actors	-7858
▁borrow	-7859
▁extrem	-7860
▁racial	-7861
▁rarely	-7862
▁scream	-7863
▁stupid	-7864
▁Philipp	-7865
▁drawing	-7866
▁engaged	-7867
▁finance	-7868
▁hitting	-7869
▁episodes	-7870
▁incorpor	-7871
▁reducing	-7872
▁tomorrow	-7873
▁ultimate	-7874
▁indicated	-7875
▁recording	-7876
▁expectations	-7877
▁restrictions	-7878
4)	-7879
dr	-7880
▁€	-7881
lad	-7882
swe	-7883
▁ON	-7884
amin	-7885
ouch	-7886
▁11,	-7887
▁ham	-7888
amber	-7889
front	-7890
isons	-7891
▁Base	-7892
▁Food	-7893
▁root	-7894
▁unve	-7895
herent	-7896
lahoma	-7897
unicip	-7898
▁Video	-7899
▁alien	-7900
▁begun	-7901
▁clock	-7902
▁recru	-7903
▁trail	-7904
▁uncom	-7905
inction	-7906
▁Justin	-7907
▁Unlike	-7908
▁pounds	-7909
▁Indiana	-7910
▁creates	-7911
▁monitor	-7912
▁routine	-7913
including	-7914
▁Columbia	-7915
▁delivery	-7916
▁graphics	-7917
▁Cleveland	-7918
▁retirement	-7919
▁transactions	-7920
9)	-7921
NA	-7922
iy	-7923
ahu	-7924
ogs	-7925
▁km	-7926
▁mo	-7927
aeda	-7928
vard	-7929
▁Ask	-7930
▁Jay	-7931
▁Non	-7932
▁Ten	-7933
▁coc	-7934
Every	-7935
rance	-7936
riers	-7937
ropri	-7938
▁Gary	-7939
▁Mars	-7940
▁joke	-7941
▁moon	-7942
rolled	-7943
▁Later	-7944
▁Latin	-7945
▁Patri	-7946
▁cable	-7947
▁deleg	-7948
▁fault	-7949
▁lists	-7950
▁newly	-7951
▁ocean	-7952
▁threw	-7953
▁toler	-7954
▁Cooper	-7955
▁Edward	-7956
▁Galaxy	-7957
▁Morgan	-7958
▁casual	-7959
▁Medical	-7960
▁Related	-7961
▁compete	-7962
▁deliber	-7963
▁discipl	-7964
▁forcing	-7965
▁preserv	-7966
▁remarks	-7967
▁expanded	-7968
▁supplies	-7969
▁featuring	-7970
▁movements	-7971
▁attempting	-7972
▁educational	-7973
sm	-7974
lan	-7975
▁CO	-7976
▁SS	-7977
▁VR	-7978
rell	-7979
sels	-7980
thon	-7981
umer	-7982
▁Hit	-7983
▁Inf	-7984
▁Kar	-7985
▁McK	-7986
▁Six	-7987
▁Ven	-7988
▁iOS	-7989
found	-7990
ifest	-7991
▁Hosp	-7992
▁frag	-7993
▁myth	-7994
▁plug	-7995
▁shit	-7996
▁vary	-7997
▁clubs	-7998
▁funny	-7999
▁remem	-8000
▁robot	-8001
▁stead	-8002
lements	-8003
mission	-8004
▁Battle	-8005
▁Design	-8006
▁Spring	-8007
▁handed	-8008
▁lights	-8009
▁resign	-8010
▁scores	-8011
▁Italian	-8012
▁premium	-8013
▁unclear	-8014
▁Assembly	-8015
▁Everyone	-8016
▁feelings	-8017
▁minority	-8018
▁collected	-8019
▁terrorists	-8020
▁discussions	-8021
▁headquarters	-8022
▁implementation	-8023
EP	-8024
PG	-8025
ho	-8026
ami	-8027
▁SH	-8028
▁ok	-8029
etts	-8030
ikes	-8031
▁(10	-8032
▁Bry	-8033
▁Gre	-8034
▁Lyn	-8035
▁Oak	-8036
▁shr	-8037
▁unw	-8038
plete	-8039
power	-8040
senal	-8041
uated	-8042
▁Bang	-8043
▁Core	-8044
▁Kurd	-8045
▁Pitt	-8046
▁elig	-8047
▁hang	-8048
▁rush	-8049
usions	-8050
▁Anton	-8051
▁Iraqi	-8052
▁enorm	-8053
▁spots	-8054
portion	-8055
▁apolog	-8056
▁conven	-8057
▁inject	-8058
▁ranked	-8059
▁tackle	-8060
▁Chelsea	-8061
▁Mexican	-8062
▁careful	-8063
▁segment	-8064
▁surgery	-8065
▁normally	-8066
▁Represent	-8067
▁civilians	-8068
▁exclusive	-8069
▁permanent	-8070
▁suggesting	-8071
▁vulnerable	-8072
▁representative	-8073
Not	-8074
des	-8075
▁6,	-8076
▁Li	-8077
▁Po	-8078
anna	-8079
teen	-8080
▁Dev	-8081
▁Equ	-8082
▁Jam	-8083
▁Saf	-8084
▁Syd	-8085
▁dub	-8086
▁tag	-8087
itage	-8088
▁Girl	-8089
▁Hope	-8090
▁dump	-8091
▁hook	-8092
▁soph	-8093
▁wars	-8094
▁Chair	-8095
▁Exper	-8096
▁Henry	-8097
▁firms	-8098
▁roles	-8099
▁usage	-8100
▁Batman	-8101
▁Figure	-8102
▁Harris	-8103
▁Museum	-8104
▁Person	-8105
▁dinner	-8106
▁licens	-8107
▁viewed	-8108
▁deficit	-8109
▁founder	-8110
▁monthly	-8111
▁uniform	-8112
▁writers	-8113
▁announce	-8114
▁disorder	-8115
▁mistakes	-8116
▁symptoms	-8117
▁variable	-8118
▁lawmakers	-8119
▁personnel	-8120
▁providers	-8121
▁contribute	-8122
▁populations	-8123
▁constitutional	-8124
:4	-8125
Pe	-8126
igg	-8127
osm	-8128
xit	-8129
▁65	-8130
aval	-8131
iate	-8132
rous	-8133
walk	-8134
▁0.0	-8135
▁Bad	-8136
▁cow	-8137
▁fab	-8138
achel	-8139
achus	-8140
berry	-8141
eding	-8142
enter	-8143
inois	-8144
prene	-8145
▁Belg	-8146
▁Kong	-8147
▁Live	-8148
▁Vill	-8149
▁Xbox	-8150
▁Yeah	-8151
▁drew	-8152
▁summ	-8153
▁wine	-8154
Donald	-8155
arring	-8156
cience	-8157
iences	-8158
▁Const	-8159
▁cance	-8160
▁reads	-8161
▁relax	-8162
▁Avenue	-8163
▁Family	-8164
▁Golden	-8165
▁Graham	-8166
▁backed	-8167
▁bacter	-8168
▁mining	-8169
▁Current	-8170
▁Turkish	-8171
▁designs	-8172
▁disrupt	-8173
▁intense	-8174
▁medicine	-8175
▁sequence	-8176
▁throwing	-8177
▁carefully	-8178
▁convinced	-8179
▁platforms	-8180
▁scientist	-8181
▁Technology	-8182
▁complaints	-8183
▁efficiency	-8184
▁involvement	-8185
▁partnership	-8186
▁recognition	-8187
▁Intelligence	-8188
▁organisation	-8189
▁consideration	-8190
TH	-8191
UR	-8192
.[5	-8193
/10	-8194
aph	-8195
aus	-8196
fol	-8197
isk	-8198
yer	-8199
amac	-8200
cles	-8201
fund	-8202
gage	-8203
ouri	-8204
umes	-8205
▁21,	-8206
▁Ren	-8207
▁Tai	-8208
▁nic	-8209
umble	-8210
worth	-8211
▁Alab	-8212
▁Copy	-8213
▁crop	-8214
▁foss	-8215
▁keys	-8216
apolis	-8217
encing	-8218
▁Getty	-8219
▁cabin	-8220
▁doors	-8221
▁loans	-8222
▁ratio	-8223
reprene	-8224
▁Master	-8225
▁museum	-8226
▁silver	-8227
▁Olympic	-8228
▁Ontario	-8229
▁nominee	-8230
▁persons	-8231
▁recover	-8232
▁retired	-8233
▁reviews	-8234
▁staying	-8235
▁Illinois	-8236
▁Oklahoma	-8237
▁Remember	-8238
▁activist	-8239
▁studying	-8240
▁legitimate	-8241
▁negotiations	-8242
▁congressional	-8243
wr	-8244
ila	-8245
inf	-8246
▁CB	-8247
▁ax	-8248
hour	-8249
uine	-8250
▁14,	-8251
▁18,	-8252
▁API	-8253
▁Der	-8254
▁Ott	-8255
▁Sel	-8256
▁Son	-8257
asury	-8258
comes	-8259
icket	-8260
▁Crit	-8261
▁legs	-8262
▁peak	-8263
arrass	-8264
▁2007,	-8265
▁gains	-8266
▁merch	-8267
▁smoke	-8268
▁spark	-8269
▁vital	-8270
ificial	-8271
▁Credit	-8272
▁ballot	-8273
▁colors	-8274
▁export	-8275
▁hockey	-8276
▁Earlier	-8277
▁compare	-8278
▁equally	-8279
▁illness	-8280
▁Ministry	-8281
▁engineer	-8282
▁processes	-8283
▁programme	-8284
▁Associated	-8285
▁Revolution	-8286
▁affordable	-8287
▁comprehens	-8288
▁democratic	-8289
▁encouraged	-8290
▁permission	-8291
96	-8292
Ex	-8293
MS	-8294
OV	-8295
sl	-8296
die	-8297
rec	-8298
▁DO	-8299
rets	-8300
▁15,	-8301
▁Abb	-8302
▁Ast	-8303
▁Fal	-8304
▁Mir	-8305
▁Sab	-8306
▁dad	-8307
▁mad	-8308
▁tip	-8309
anted	-8310
aware	-8311
▁Code	-8312
▁Dave	-8313
▁Hell	-8314
▁Mess	-8315
▁Stat	-8316
▁asks	-8317
▁clar	-8318
▁nerv	-8319
istent	-8320
▁Yemen	-8321
▁admit	-8322
▁distr	-8323
amacare	-8324
▁Tennes	-8325
▁bridge	-8326
▁papers	-8327
▁stages	-8328
▁clothes	-8329
▁portray	-8330
▁Football	-8331
▁athletes	-8332
▁covering	-8333
▁resource	-8334
▁celebrate	-8335
▁contracts	-8336
▁sensitive	-8337
▁legislative	-8338
▁unemployment	-8339
▁transportation	-8340
LC	-8341
▁©	-8342
fit	-8343
▁AI	-8344
▁Ak	-8345
▁IT	-8346
▁Lo	-8347
conf	-8348
from	-8349
iary	-8350
iffs	-8351
pton	-8352
▁30,	-8353
▁Dur	-8354
▁Sat	-8355
▁Sud	-8356
▁fed	-8357
▁gam	-8358
▁wra	-8359
ijing	-8360
▁Case	-8361
▁Exec	-8362
▁Swit	-8363
▁prev	-8364
▁pump	-8365
▁stab	-8366
▁surf	-8367
▁symp	-8368
scribe	-8369
▁anger	-8370
▁brill	-8371
▁races	-8372
▁stake	-8373
▁veget	-8374
▁wheel	-8375
intendo	-8376
through	-8377
▁Prince	-8378
▁behalf	-8379
▁funded	-8380
▁serves	-8381
▁Alabama	-8382
▁Beijing	-8383
▁banking	-8384
▁failing	-8385
▁rapidly	-8386
▁Economic	-8387
▁commonly	-8388
▁forecast	-8389
▁addressed	-8390
▁classified	-8391
▁foundation	-8392
▁personality	-8393
▁temperatures	-8394
▁investigating	-8395
))	-8396
32	-8397
▁”	-8398
aun	-8399
bro	-8400
oen	-8401
tra	-8402
uma	-8403
who	-8404
▁41	-8405
▁56	-8406
asty	-8407
eman	-8408
even	-8409
this	-8410
▁Sav	-8411
▁hip	-8412
ennis	-8413
▁Gulf	-8414
▁Rand	-8415
▁Rose	-8416
▁Viet	-8417
▁chest	-8418
▁noise	-8419
▁stone	-8420
▁tries	-8421
▁Former	-8422
▁Others	-8423
▁counts	-8424
▁liquid	-8425
▁neighb	-8426
▁poison	-8427
▁render	-8428
▁suffer	-8429
iability	-8430
▁affairs	-8431
▁fantasy	-8432
▁farmers	-8433
▁genuine	-8434
▁speaker	-8435
achusetts	-8436
▁Hospital	-8437
▁extraord	-8438
▁rational	-8439
▁thousand	-8440
▁visitors	-8441
▁simultane	-8442
▁association	-8443
▁spokeswoman	-8444
▁acknowledged	-8445
Do	-8446
wo	-8447
dri	-8448
▁WH	-8449
arms	-8450
cott	-8451
irds	-8452
made	-8453
yles	-8454
▁Ali	-8455
▁Lim	-8456
▁jur	-8457
▁les	-8458
Trump	-8459
acket	-8460
aping	-8461
eries	-8462
heast	-8463
icity	-8464
igare	-8465
itary	-8466
trans	-8467
▁Link	-8468
▁Pent	-8469
▁Vice	-8470
▁gate	-8471
igious	-8472
strong	-8473
▁Creat	-8474
▁Lewis	-8475
▁blind	-8476
▁inequ	-8477
▁ranks	-8478
▁skept	-8479
▁surge	-8480
▁Empire	-8481
▁Sydney	-8482
▁barrel	-8483
▁invent	-8484
▁pursue	-8485
▁tables	-8486
iversary	-8487
▁Academy	-8488
▁tremend	-8489
▁warrant	-8490
▁Speaking	-8491
▁attitude	-8492
▁gathered	-8493
▁historic	-8494
▁midfield	-8495
▁Tennessee	-8496
▁ownership	-8497
▁touchdown	-8498
▁interviews	-8499
▁architecture	-8500
▁Massachusetts	-8501
MP	-8502
aga	-8503
iev	-8504
osa	-8505
▁47	-8506
argo	-8507
weet	-8508
writ	-8509
▁NAT	-8510
▁sup	-8511
▁tur	-8512
atern	-8513
cover	-8514
ordon	-8515
▁2019	-8516
▁Jenn	-8517
▁aged	-8518
▁duty	-8519
▁pron	-8520
▁rear	-8521
▁swim	-8522
icking	-8523
▁Libya	-8524
▁absor	-8525
▁coinc	-8526
▁compe	-8527
▁reven	-8528
▁Custom	-8529
▁Friend	-8530
▁Should	-8531
▁extend	-8532
▁obtain	-8533
▁smooth	-8534
▁Freedom	-8535
▁beliefs	-8536
▁joining	-8537
▁offices	-8538
▁Atlantic	-8539
▁Moreover	-8540
▁Nintendo	-8541
▁concrete	-8542
▁handling	-8543
▁humanity	-8544
▁neighbour	-8545
▁purchased	-8546
▁innovation	-8547
▁statistics	-8548
▁unexpected	-8549
▁recommended	-8550
ye	-8551
dem	-8552
rep	-8553
ses	-8554
zed	-8555
▁CL	-8556
▁UC	-8557
With	-8558
ctic	-8559
irts	-8560
ntil	-8561
olen	-8562
only	-8563
▁(1)	-8564
▁Use	-8565
backs	-8566
gener	-8567
▁Cuba	-8568
▁Five	-8569
▁Jere	-8570
▁Know	-8571
▁Line	-8572
▁Wolf	-8573
▁mini	-8574
▁tiss	-8575
▁2011.	-8576
▁Front	-8577
▁falls	-8578
▁genes	-8579
▁intim	-8580
▁quote	-8581
▁scope	-8582
▁stops	-8583
▁Indust	-8584
▁checks	-8585
▁conver	-8586
▁exclus	-8587
▁fights	-8588
▁gained	-8589
▁locked	-8590
▁marked	-8591
▁salary	-8592
▁authent	-8593
▁burning	-8594
▁ignored	-8595
▁Festival	-8596
▁enormous	-8597
▁involves	-8598
▁missions	-8599
▁playoffs	-8600
▁whenever	-8601
▁Obamacare	-8602
▁languages	-8603
▁pollution	-8604
▁searching	-8605
▁literature	-8606
▁passengers	-8607
▁structures	-8608
▁experiments	-8609
▁restaurants	-8610
▁contribution	-8611
")	-8612
85	-8613
VD	-8614
ls	-8615
▁~	-8616
App	-8617
▁39	-8618
▁Ku	-8619
acco	-8620
enth	-8621
etch	-8622
high	-8623
ogen	-8624
▁Boe	-8625
▁Hon	-8626
▁Rus	-8627
▁tab	-8628
angel	-8629
month	-8630
scale	-8631
▁2020	-8632
▁Pope	-8633
▁Sure	-8634
▁Tech	-8635
▁buff	-8636
▁info	-8637
▁sear	-8638
ieties	-8639
outing	-8640
▁drove	-8641
▁foods	-8642
▁minds	-8643
▁trave	-8644
ocument	-8645
▁Reddit	-8646
▁define	-8647
▁guitar	-8648
▁judges	-8649
▁legacy	-8650
▁medium	-8651
▁soccer	-8652
▁speaks	-8653
ognitive	-8654
unicipal	-8655
▁Control	-8656
▁Harvard	-8657
▁Whether	-8658
▁depends	-8659
▁greatly	-8660
▁handful	-8661
▁helpful	-8662
▁trained	-8663
▁reliable	-8664
▁behaviour	-8665
▁improving	-8666
▁listening	-8667
▁preparing	-8668
▁submitted	-8669
▁conspiracy	-8670
▁protecting	-8671
▁transaction	-8672
▁improvements	-8673
▁overwhelming	-8674
▁representation	-8675
65	-8676
=”	-8677
UN	-8678
AND	-8679
cut	-8680
igs	-8681
oln	-8682
tes	-8683
▁3-	-8684
▁PA	-8685
▁SE	-8686
ihad	-8687
ipal	-8688
rics	-8689
▁16,	-8690
▁Age	-8691
▁Ent	-8692
▁III	-8693
▁Lam	-8694
adesh	-8695
bound	-8696
ivals	-8697
shire	-8698
▁Expl	-8699
▁List	-8700
▁MORE	-8701
▁chip	-8702
aching	-8703
itudes	-8704
▁Final	-8705
▁Marsh	-8706
▁neuro	-8707
▁rural	-8708
▁Howard	-8709
▁Rather	-8710
▁Silver	-8711
▁Within	-8712
▁testim	-8713
▁genetic	-8714
▁inquiry	-8715
▁reprodu	-8716
▁Treasury	-8717
▁attached	-8718
▁brothers	-8719
▁graduate	-8720
▁homeless	-8721
▁subjects	-8722
▁landscape	-8723
▁proposals	-8724
▁Palestinians	-8725
▁demonstrated	-8726
▁implications	-8727
▁introduction	-8728
▁64	-8729
▁BM	-8730
▁HD	-8731
▁LE	-8732
▁Ur	-8733
▁iP	-8734
door	-8735
lete	-8736
tain	-8737
▁Dod	-8738
▁Iss	-8739
▁cro	-8740
▁wed	-8741
These	-8742
break	-8743
ester	-8744
rison	-8745
▁dies	-8746
▁intr	-8747
▁Andre	-8748
▁Santa	-8749
▁hoped	-8750
▁lucky	-8751
▁smile	-8752
▁urged	-8753
▁Bernie	-8754
▁Greece	-8755
▁drives	-8756
▁horror	-8757
▁stored	-8758
▁Liberal	-8759
▁captain	-8760
▁eastern	-8761
▁torture	-8762
▁disagree	-8763
▁entitled	-8764
▁focusing	-8765
▁parallel	-8766
▁petition	-8767
▁Amendment	-8768
▁embarrass	-8769
▁exception	-8770
▁practical	-8771
▁promising	-8772
▁criticized	-8773
▁monitoring	-8774
▁nomination	-8775
▁distributed	-8776
▁documentary	-8777
▁Additionally	-8778
IE	-8779
TT	-8780
Why	-8781
mat	-8782
ped	-8783
was	-8784
▁46	-8785
▁Hu	-8786
ille	-8787
mind	-8788
news	-8789
▁193	-8790
▁Luc	-8791
▁Mrs	-8792
▁Sus	-8793
ested	-8794
organ	-8795
orous	-8796
party	-8797
▁Cole	-8798
▁Left	-8799
▁Marx	-8800
▁abst	-8801
▁bars	-8802
▁exha	-8803
▁gent	-8804
▁glad	-8805
▁hide	-8806
▁Being	-8807
▁Sarah	-8808
▁brown	-8809
▁grass	-8810
▁lands	-8811
▁lunch	-8812
▁picks	-8813
▁Bureau	-8814
▁covers	-8815
▁finger	-8816
▁margin	-8817
▁pocket	-8818
▁preced	-8819
▁racing	-8820
▁anxiety	-8821
▁enthusi	-8822
▁musical	-8823
▁savings	-8824
▁studied	-8825
▁tickets	-8826
▁Children	-8827
▁defeated	-8828
▁insisted	-8829
▁ordinary	-8830
▁visiting	-8831
▁procedure	-8832
▁temporary	-8833
▁approaches	-8834
▁maintained	-8835
▁appearances	-8836
▁conventional	-8837
▁intellectual	-8838
▁representing	-8839
iel	-8840
▁AB	-8841
▁CA	-8842
▁fu	-8843
aver	-8844
bury	-8845
crib	-8846
step	-8847
————	-8848
▁10.	-8849
▁Had	-8850
▁NOT	-8851
▁cup	-8852
▁sed	-8853
▁ves	-8854
annon	-8855
icism	-8856
ounce	-8857
rooms	-8858
▁Bron	-8859
▁Ever	-8860
▁Jean	-8861
▁Mach	-8862
▁Pant	-8863
▁chat	-8864
▁obsc	-8865
▁tear	-8866
▁warn	-8867
phones	-8868
▁Assad	-8869
▁Short	-8870
▁Vegas	-8871
▁lying	-8872
▁wider	-8873
utorial	-8874
▁Photos	-8875
▁mathem	-8876
▁module	-8877
▁spoken	-8878
▁titled	-8879
▁consent	-8880
▁diverse	-8881
▁protein	-8882
▁transit	-8883
▁deadline	-8884
▁dominant	-8885
▁intellig	-8886
▁interact	-8887
▁pointing	-8888
▁receiver	-8889
▁districts	-8890
▁instances	-8891
▁seemingly	-8892
▁suspected	-8893
▁violation	-8894
▁approached	-8895
▁subsequent	-8896
▁volunteers	-8897
▁conversations	-8898
47	-8899
gus	-8900
har	-8901
ova	-8902
▁53	-8903
▁Az	-8904
▁CS	-8905
▁Wr	-8906
Star	-8907
held	-8908
iece	-8909
itol	-8910
oret	-8911
▁1.5	-8912
▁Ark	-8913
▁Bon	-8914
aders	-8915
maker	-8916
unior	-8917
ystem	-8918
▁Mill	-8919
▁Norm	-8920
▁ease	-8921
▁hung	-8922
▁logo	-8923
▁odds	-8924
▁rhet	-8925
▁stem	-8926
▁vend	-8927
usalem	-8928
▁Clark	-8929
▁Kelly	-8930
▁Motor	-8931
▁Total	-8932
▁fears	-8933
▁flags	-8934
▁hired	-8935
▁patch	-8936
▁sugar	-8937
▁wrest	-8938
▁Marvel	-8939
▁assign	-8940
▁breaks	-8941
▁repeat	-8942
▁topics	-8943
▁blocked	-8944
▁broader	-8945
▁chapter	-8946
▁discour	-8947
▁facilit	-8948
▁grounds	-8949
▁letting	-8950
▁replied	-8951
▁reverse	-8952
▁shocked	-8953
▁employer	-8954
▁subscrib	-8955
▁incidents	-8956
▁requested	-8957
▁requiring	-8958
▁innovative	-8959
▁punishment	-8960
▁regulation	-8961
▁regulatory	-8962
▁implemented	-8963
▁interaction	-8964
▁spokesperson	-8965
▁investigations	-8966
">	-8967
64	-8968
TON	-8969
omy	-8970
acon	-8971
bits	-8972
http	-8973
ifer	-8974
mans	-8975
▁28,	-8976
▁Bab	-8977
▁hal	-8978
▁mac	-8979
▁nod	-8980
ailed	-8981
eters	-8982
lined	-8983
netic	-8984
▁Kick	-8985
▁Prov	-8986
▁Sony	-8987
▁True	-8988
▁Writ	-8989
▁aims	-8990
▁deny	-8991
▁maps	-8992
▁math	-8993
▁mice	-8994
▁semi	-8995
▁soil	-8996
minute	-8997
▁2010.	-8998
▁Bible	-8999
▁Death	-9000
▁Diego	-9001
▁Liver	-9002
▁alter	-9003
▁shirt	-9004
▁shoes	-9005
holders	-9006
▁Action	-9007
▁Things	-9008
▁dating	-9009
▁firing	-9010
▁hosted	-9011
▁partly	-9012
▁spaces	-9013
▁dynamic	-9014
▁endorse	-9015
▁holiday	-9016
▁screens	-9017
▁tweeted	-9018
▁upgrade	-9019
▁Hamilton	-9020
▁Jonathan	-9021
▁designer	-9022
▁moderate	-9023
▁overseas	-9024
▁register	-9025
▁tracking	-9026
▁veterans	-9027
▁Instagram	-9028
▁indicates	-9029
▁preferred	-9030
▁prisoners	-9031
▁discussing	-9032
▁controversy	-9033
!)	-9034
HA	-9035
ni	-9036
ais	-9037
hop	-9038
ikh	-9039
iki	-9040
rif	-9041
▁6.	-9042
▁ET	-9043
▁SD	-9044
izer	-9045
rypt	-9046
serv	-9047
type	-9048
▁190	-9049
▁Hal	-9050
▁Low	-9051
▁Vik	-9052
▁YOU	-9053
▁aer	-9054
▁rom	-9055
ancer	-9056
cling	-9057
▁Ball	-9058
▁Linc	-9059
▁Mult	-9060
▁bowl	-9061
▁grav	-9062
▁neck	-9063
▁outs	-9064
▁porn	-9065
▁rely	-9066
change	-9067
orship	-9068
▁Event	-9069
▁alarm	-9070
▁bonus	-9071
▁sorts	-9072
▁steel	-9073
▁swing	-9074
▁Number	-9075
▁citing	-9076
▁static	-9077
▁Charlie	-9078
▁Kennedy	-9079
▁awarded	-9080
▁profits	-9081
▁trigger	-9082
▁Governor	-9083
▁clothing	-9084
▁distingu	-9085
▁innocent	-9086
▁restrict	-9087
▁Transport	-9088
▁appointed	-9089
▁brilliant	-9090
▁electoral	-9091
▁happiness	-9092
▁referring	-9093
▁accessible	-9094
▁explaining	-9095
▁industries	-9096
▁requirement	-9097
▁substantial	-9098
▁contributions	-9099
/1	-9100
98	-9101
CE	-9102
bi	-9103
pg	-9104
akh	-9105
uce	-9106
arts	-9107
emed	-9108
emic	-9109
eria	-9110
html	-9111
left	-9112
rior	-9113
▁Box	-9114
▁Eag	-9115
▁Ian	-9116
▁Las	-9117
▁Try	-9118
▁mic	-9119
,000.	-9120
angle	-9121
outed	-9122
▁Hand	-9123
▁Hong	-9124
▁Iron	-9125
▁Main	-9126
▁irre	-9127
▁memo	-9128
▁vert	-9129
▁yeah	-9130
erning	-9131
market	-9132
uating	-9133
▁arbit	-9134
▁blank	-9135
▁dying	-9136
▁elder	-9137
▁layer	-9138
assador	-9139
ounding	-9140
rection	-9141
▁Brexit	-9142
▁Bridge	-9143
▁Corpor	-9144
▁Player	-9145
▁Sweden	-9146
▁fossil	-9147
▁physic	-9148
▁racist	-9149
▁revers	-9150
▁stolen	-9151
▁yellow	-9152
▁Affairs	-9153
▁divided	-9154
▁factory	-9155
▁ratings	-9156
▁Alliance	-9157
▁estimate	-9158
▁friendly	-9159
▁measured	-9160
▁striking	-9161
▁thorough	-9162
▁Jerusalem	-9163
▁introduce	-9164
▁membership	-9165
▁performing	-9166
▁demonstrate	-9167
▁politically	-9168
▁progressive	-9169
▁comprehensive	-9170
'.	-9171
.-	-9172
On	-9173
▁1:	-9174
▁NO	-9175
▁Pu	-9176
aved	-9177
oids	-9178
olph	-9179
shot	-9180
supp	-9181
zing	-9182
▁17,	-9183
▁Deb	-9184
▁Roy	-9185
▁Tes	-9186
▁bab	-9187
▁bin	-9188
▁fro	-9189
▁gif	-9190
onder	-9191
▁Priv	-9192
▁boat	-9193
▁puzz	-9194
▁tens	-9195
annels	-9196
swered	-9197
▁Below	-9198
▁Flash	-9199
▁drama	-9200
▁drunk	-9201
▁helic	-9202
▁march	-9203
▁uncon	-9204
▁weigh	-9205
Reuters	-9206
▁Dragon	-9207
▁Jeremy	-9208
▁Online	-9209
▁abroad	-9210
▁errors	-9211
▁ignore	-9212
▁lineup	-9213
▁loaded	-9214
▁provin	-9215
▁riding	-9216
▁saving	-9217
▁twenty	-9218
vernment	-9219
▁Lincoln	-9220
▁console	-9221
▁resolve	-9222
▁whereas	-9223
▁Maryland	-9224
▁answered	-9225
▁concepts	-9226
▁equality	-9227
▁relation	-9228
▁settings	-9229
▁spectrum	-9230
▁wireless	-9231
▁awareness	-9232
▁diversity	-9233
▁promoting	-9234
▁universal	-9235
▁attractive	-9236
▁newsletter	-9237
▁communicate	-9238
________________	-9239
??	-9240
jo	-9241
yo	-9242
Fig	-9243
UST	-9244
▁GO	-9245
####	-9246
Cont	-9247
alia	-9248
case	-9249
ifle	-9250
pled	-9251
sect	-9252
▁(2)	-9253
▁25,	-9254
▁Bah	-9255
▁Bal	-9256
▁Est	-9257
▁MLS	-9258
▁Run	-9259
▁Tok	-9260
▁tap	-9261
cific	-9262
▁Disc	-9263
▁Pass	-9264
▁Ruby	-9265
▁Spir	-9266
▁amid	-9267
▁drum	-9268
▁gene	-9269
▁slot	-9270
Script	-9271
▁Award	-9272
▁Dream	-9273
▁birds	-9274
▁recre	-9275
▁toxic	-9276
atively	-9277
starter	-9278
▁Kansas	-9279
▁McCain	-9280
▁domain	-9281
▁prepar	-9282
▁repeal	-9283
▁undert	-9284
▁Captain	-9285
▁Officer	-9286
▁Support	-9287
▁arguing	-9288
▁closing	-9289
▁insight	-9290
▁inspect	-9291
▁outrage	-9292
▁Brooklyn	-9293
▁emotions	-9294
▁pipeline	-9295
▁shopping	-9296
▁Liverpool	-9297
▁demanding	-9298
▁execution	-9299
▁journalism	-9300
▁meaningful	-9301
▁counterpart	-9302
▁maintaining	-9303
▁extraordinary	-9304
78	-9305
RL	-9306
pa	-9307
Can	-9308
low	-9309
she	-9310
wed	-9311
iano	-9312
odox	-9313
reek	-9314
ught	-9315
ylum	-9316
▁$15	-9317
▁Abd	-9318
▁CPU	-9319
▁Vin	-9320
▁Wel	-9321
agedy	-9322
large	-9323
▁Alan	-9324
▁mask	-9325
▁terr	-9326
▁Dutch	-9327
▁Pitts	-9328
▁Until	-9329
▁delic	-9330
▁grade	-9331
▁marks	-9332
▁polar	-9333
▁sweep	-9334
looking	-9335
tenance	-9336
theless	-9337
▁Harper	-9338
▁Warren	-9339
▁copies	-9340
▁openly	-9341
▁recall	-9342
▁sovere	-9343
▁stayed	-9344
▁surely	-9345
▁weekly	-9346
▁arrival	-9347
▁Building	-9348
▁Missouri	-9349
▁defender	-9350
▁shoulder	-9351
▁algorithm	-9352
▁formation	-9353
▁perceived	-9354
▁secondary	-9355
▁spiritual	-9356
▁stability	-9357
▁artificial	-9358
▁biological	-9359
▁blockchain	-9360
▁entreprene	-9361
▁tremendous	-9362
▁anniversary	-9363
▁importantly	-9364
▁capabilities	-9365
▁occasionally	-9366
NC	-9367
WS	-9368
▁−	-9369
bow	-9370
ean	-9371
ige	-9372
pat	-9373
ubb	-9374
▁DJ	-9375
▁Ka	-9376
inge	-9377
omes	-9378
plus	-9379
▁NSA	-9380
▁Raj	-9381
ammed	-9382
ierce	-9383
rated	-9384
▁Duke	-9385
▁Holl	-9386
▁Moon	-9387
▁NATO	-9388
▁Page	-9389
▁dust	-9390
▁echo	-9391
▁exit	-9392
▁hint	-9393
▁tips	-9394
▁Could	-9395
▁boxes	-9396
▁fruit	-9397
▁hypot	-9398
▁logic	-9399
▁pride	-9400
▁prize	-9401
▁sheet	-9402
▁unpre	-9403
▁10,000	-9404
▁burden	-9405
▁buried	-9406
▁butter	-9407
▁endors	-9408
▁refuse	-9409
▁trials	-9410
▁Against	-9411
▁Arsenal	-9412
▁Library	-9413
▁Nothing	-9414
▁Station	-9415
▁analyst	-9416
▁backing	-9417
▁helicop	-9418
▁picking	-9419
▁possess	-9420
▁Download	-9421
▁emerging	-9422
▁ministry	-9423
▁abilities	-9424
▁attending	-9425
▁centuries	-9426
▁provision	-9427
▁subscribe	-9428
▁targeting	-9429
▁assessment	-9430
▁concerning	-9431
▁ridiculous	-9432
▁Christopher	-9433
▁outstanding	-9434
▁presentation	-9435
▁representatives	-9436
6)	-9437
JP	-9438
.[4	-9439
ATE	-9440
ira	-9441
ogy	-9442
via	-9443
▁GT	-9444
base	-9445
▁13,	-9446
▁19,	-9447
▁22,	-9448
▁USB	-9449
▁gut	-9450
▁mos	-9451
▁tea	-9452
aimed	-9453
elson	-9454
▁Area	-9455
▁Comb	-9456
▁Rome	-9457
▁arts	-9458
▁bell	-9459
▁bias	-9460
▁coup	-9461
bridge	-9462
▁dates	-9463
▁persu	-9464
▁Berlin	-9465
▁Watson	-9466
▁argues	-9467
▁bottle	-9468
▁unions	-9469
▁Product	-9470
▁autonom	-9471
▁contrad	-9472
▁expense	-9473
▁pulling	-9474
▁silence	-9475
▁stepped	-9476
▁tactics	-9477
▁therapy	-9478
istration	-9479
▁actively	-9480
▁outcomes	-9481
▁prompted	-9482
▁Authority	-9483
▁childhood	-9484
▁satellite	-9485
▁sentenced	-9486
▁substance	-9487
▁categories	-9488
▁depression	-9489
▁propaganda	-9490
▁remarkable	-9491
▁residential	-9492
▁interactions	-9493
▁psychological	-9494
▁simultaneously	-9495
DC	-9496
lee	-9497
▁#1	-9498
brid	-9499
heim	-9500
▁2.5	-9501
▁AND	-9502
▁Bud	-9503
▁cul	-9504
archy	-9505
child	-9506
grade	-9507
hesis	-9508
▁Film	-9509
▁Gaza	-9510
▁Hold	-9511
▁None	-9512
▁Uber	-9513
▁bold	-9514
▁fing	-9515
▁mile	-9516
▁pill	-9517
anches	-9518
ateral	-9519
ported	-9520
▁Local	-9521
▁Simon	-9522
▁adopt	-9523
▁bombs	-9524
▁conce	-9525
▁embed	-9526
▁escal	-9527
▁fatal	-9528
▁harsh	-9529
▁notor	-9530
▁probe	-9531
▁revel	-9532
▁Access	-9533
▁deadly	-9534
▁insult	-9535
▁tempor	-9536
▁Channel	-9537
▁Digital	-9538
▁beating	-9539
▁collaps	-9540
▁damaged	-9541
▁outlets	-9542
▁samples	-9543
▁servers	-9544
▁Campbell	-9545
▁festival	-9546
▁Executive	-9547
▁Subscribe	-9548
▁Therefore	-9549
▁abandoned	-9550
▁disappear	-9551
▁guarantee	-9552
▁integrity	-9553
▁naturally	-9554
▁similarly	-9555
▁struggled	-9556
▁Management	-9557
▁strengthen	-9558
▁replacement	-9559
/4	-9560
LY	-9561
aya	-9562
cor	-9563
▁1)	-9564
▁3:	-9565
▁Ze	-9566
****	-9567
abet	-9568
esty	-9569
idal	-9570
oval	-9571
▁24,	-9572
▁27,	-9573
▁Bra	-9574
▁Bul	-9575
▁Inn	-9576
build	-9577
ppers	-9578
▁1950	-9579
▁Pict	-9580
▁calm	-9581
▁fate	-9582
▁fool	-9583
rowing	-9584
▁Chron	-9585
▁Lions	-9586
▁Wales	-9587
▁compr	-9588
▁drone	-9589
▁inner	-9590
▁sixth	-9591
entures	-9592
forward	-9593
instein	-9594
section	-9595
▁Gordon	-9596
▁fundra	-9597
▁lesson	-9598
▁muscle	-9599
▁phrase	-9600
▁stance	-9601
▁voices	-9602
emporary	-9603
▁Capital	-9604
▁Oakland	-9605
▁Overall	-9606
▁absence	-9607
▁desktop	-9608
▁landing	-9609
▁scandal	-9610
▁Pentagon	-9611
▁advocate	-9612
▁analysts	-9613
▁suspects	-9614
▁adventure	-9615
▁employers	-9616
▁frequency	-9617
▁mechanism	-9618
▁smartphone	-9619
▁generations	-9620
▁ingredients	-9621
▁professionals	-9622
55	-9623
AB	-9624
RC	-9625
uy	-9626
iah	-9627
ois	-9628
pha	-9629
▁''	-9630
▁da	-9631
▁na	-9632
irlf	-9633
oded	-9634
pace	-9635
▁Eve	-9636
▁GDP	-9637
▁Hop	-9638
▁Log	-9639
▁Pel	-9640
▁pin	-9641
▁tie	-9642
sight	-9643
▁Publ	-9644
▁roof	-9645
People	-9646
arians	-9647
ration	-9648
▁2008.	-9649
▁Leban	-9650
▁alloc	-9651
▁array	-9652
▁chips	-9653
▁dance	-9654
▁setup	-9655
▁shell	-9656
▁waves	-9657
aration	-9658
igation	-9659
▁Argent	-9660
▁Carter	-9661
▁blamed	-9662
▁rebels	-9663
▁refers	-9664
▁surviv	-9665
========	-9666
cedented	-9667
▁100,000	-9668
▁Capitol	-9669
▁circuit	-9670
▁imposed	-9671
▁instant	-9672
▁kitchen	-9673
▁settled	-9674
▁Interest	-9675
▁accompan	-9676
▁gameplay	-9677
▁shipping	-9678
▁amendment	-9679
▁defending	-9680
▁municipal	-9681
▁responses	-9682
▁accomplish	-9683
▁highlights	-9684
▁phenomenon	-9685
▁researcher	-9686
▁strategies	-9687
▁surrounded	-9688
▁differently	-9689
▁prosecutors	-9690
▁Organization	-9691
▁unfortunately	-9692
▁recommendations	-9693
ERE	-9694
ctr	-9695
isa	-9696
rix	-9697
tic	-9698
▁95	-9699
▁Ba	-9700
▁Lt	-9701
dict	-9702
ethe	-9703
hatt	-9704
▁26,	-9705
▁30-	-9706
▁Cra	-9707
▁Eth	-9708
▁Gro	-9709
▁Mit	-9710
▁Mun	-9711
▁Nob	-9712
apped	-9713
check	-9714
itual	-9715
oenix	-9716
▁Fact	-9717
▁Gene	-9718
▁Laur	-9719
▁Much	-9720
▁anch	-9721
▁cust	-9722
▁dise	-9723
▁mood	-9724
▁Crime	-9725
▁Small	-9726
▁Smart	-9727
▁Would	-9728
▁holes	-9729
▁hydro	-9730
▁loves	-9731
▁stere	-9732
igenous	-9733
▁execut	-9734
▁rocket	-9735
▁traded	-9736
▁upload	-9737
▁waters	-9738
ceptions	-9739
▁Studies	-9740
▁assumed	-9741
▁kilomet	-9742
▁periods	-9743
▁tonight	-9744
irlfriend	-9745
▁Montreal	-9746
▁acquired	-9747
▁channels	-9748
▁eligible	-9749
▁isolated	-9750
▁managing	-9751
▁occasion	-9752
▁promoted	-9753
▁regarded	-9754
▁superior	-9755
▁addresses	-9756
▁desperate	-9757
▁discovery	-9758
▁eliminate	-9759
▁hopefully	-9760
▁producers	-9761
▁relatives	-9762
▁witnesses	-9763
▁popularity	-9764
▁presidency	-9765
▁publishing	-9766
▁threatening	-9767
▁characteristics	-9768
31	-9769
97	-9770
GE	-9771
Hz	-9772
cs	-9773
js	-9774
pd	-9775
May	-9776
aki	-9777
gov	-9778
ito	-9779
jud	-9780
kee	-9781
▁2)	-9782
▁PD	-9783
alys	-9784
mony	-9785
ocur	-9786
olar	-9787
▁Bor	-9788
▁Cow	-9789
▁Mas	-9790
▁Occ	-9791
▁Tax	-9792
▁gal	-9793
▁lin	-9794
▁lux	-9795
erman	-9796
ishop	-9797
lando	-9798
riors	-9799
▁1998	-9800
▁Anna	-9801
▁Arts	-9802
▁Barn	-9803
▁Move	-9804
▁lapt	-9805
▁ramp	-9806
inator	-9807
player	-9808
ricane	-9809
▁Adams	-9810
▁Larry	-9811
▁Phone	-9812
▁beach	-9813
▁divor	-9814
▁Comput	-9815
▁Warner	-9816
▁builds	-9817
▁correl	-9818
▁inches	-9819
▁quoted	-9820
▁raises	-9821
▁shield	-9822
▁Indones	-9823
▁charity	-9824
▁cheaper	-9825
▁chicken	-9826
▁deserve	-9827
▁legally	-9828
▁monster	-9829
▁wounded	-9830
▁Kentucky	-9831
▁Medicaid	-9832
▁assigned	-9833
▁dialogue	-9834
▁judgment	-9835
▁manifest	-9836
▁theories	-9837
▁animation	-9838
▁promotion	-9839
▁Convention	-9840
▁functional	-9841
▁guidelines	-9842
▁violations	-9843
▁encouraging	-9844
▁subsequently	-9845
46	-9846
84	-9847
Im	-9848
KE	-9849
PC	-9850
rc	-9851
–1	-9852
TER	-9853
bes	-9854
oli	-9855
ppy	-9856
▁66	-9857
▁Gh	-9858
▁IM	-9859
▁Iv	-9860
▁MA	-9861
iens	-9862
uten	-9863
wich	-9864
────	-9865
▁$20	-9866
▁Bow	-9867
▁Cro	-9868
▁Jen	-9869
/2014	-9870
acher	-9871
after	-9872
eling	-9873
merce	-9874
orate	-9875
plate	-9876
shore	-9877
▁Eliz	-9878
▁Fran	-9879
▁Jane	-9880
▁Nazi	-9881
▁Qual	-9882
▁eggs	-9883
▁flee	-9884
▁gest	-9885
▁nose	-9886
▁rend	-9887
▁stro	-9888
alties	-9889
ishers	-9890
▁Intel	-9891
▁Order	-9892
▁punch	-9893
▁reass	-9894
▁smell	-9895
▁virus	-9896
Station	-9897
product	-9898
▁Python	-9899
▁ethics	-9900
▁forest	-9901
▁recipe	-9902
▁rescue	-9903
▁shadow	-9904
▁tweets	-9905
▁weaken	-9906
▁Vietnam	-9907
▁engines	-9908
▁enhance	-9909
▁billions	-9910
▁birthday	-9911
▁convince	-9912
▁invasion	-9913
▁mortgage	-9914
▁profound	-9915
▁releases	-9916
▁Bloomberg	-9917
▁consensus	-9918
▁contacted	-9919
▁militants	-9920
▁precisely	-9921
▁Pittsburgh	-9922
▁guaranteed	-9923
▁underground	-9924
▁concentration	-9925
EF	-9926
lu	-9927
-12	-9928
TML	-9929
cos	-9930
cre	-9931
▁Du	-9932
▁Ni	-9933
ATCH	-9934
izza	-9935
▁Cas	-9936
▁Gab	-9937
▁Hur	-9938
▁fer	-9939
▁hub	-9940
▁rhy	-9941
▁vel	-9942
aired	-9943
athon	-9944
▁Cars	-9945
▁Edit	-9946
▁clip	-9947
▁lane	-9948
▁lect	-9949
thodox	-9950
▁Grant	-9951
▁meets	-9952
▁opens	-9953
▁roots	-9954
▁tears	-9955
▁tired	-9956
▁towns	-9957
connect	-9958
▁Common	-9959
▁Effect	-9960
▁Safety	-9961
▁guests	-9962
▁heroes	-9963
▁rolled	-9964
▁stimul	-9965
▁timing	-9966
▁unfair	-9967
▁visits	-9968
security	-9969
▁Roberts	-9970
▁centers	-9971
▁desired	-9972
▁intimid	-9973
▁passage	-9974
▁interior	-9975
▁painting	-9976
▁weakness	-9977
▁displayed	-9978
▁followers	-9979
▁objective	-9980
▁recovered	-9981
▁testimony	-9982
▁healthcare	-9983
▁homosexual	-9984
▁inevitable	-9985
▁questioned	-9986
▁underlying	-9987
▁acknowledge	-9988
▁investments	-9989
▁sustainable	-9990
▁instructions	-9991
▁productivity	-9992
▁universities	-9993
67	-9994
BM	-9995
wa	-9996
gly	-9997
ibl	-9998
mun	-9999
oub	-10000
▁Eb	-10001
▁Ox	-10002
▁SU	-10003
▁Sa	-10004
▁nu	-10005
atar	-10006
eded	-10007
vada	-10008
▁DVD	-10009
▁Nik	-10010
▁Pir	-10011
▁gig	-10012
▁sin	-10013
abeth	-10014
ching	-10015
first	-10016
heart	-10017
olves	-10018
▁auto	-10019
▁lens	-10020
▁lift	-10021
▁owns	-10022
▁salt	-10023
▁solo	-10024
author	-10025
▁2009.	-10026
▁Aaron	-10027
▁Magic	-10028
▁Place	-10029
▁Staff	-10030
▁Tesla	-10031
▁advis	-10032
▁bread	-10033
▁fleet	-10034
▁gross	-10035
▁insur	-10036
▁stack	-10037
▁Nature	-10038
▁asylum	-10039
▁entity	-10040
▁exclud	-10041
▁resort	-10042
▁robots	-10043
▁impacts	-10044
▁justify	-10045
▁podcast	-10046
▁printed	-10047
▁senator	-10048
▁tragedy	-10049
▁utility	-10050
▁Mountain	-10051
▁choosing	-10052
▁clinical	-10053
▁lifetime	-10054
▁longtime	-10055
▁provider	-10056
▁rhetoric	-10057
▁survival	-10058
▁trillion	-10059
▁tutorial	-10060
▁Champions	-10061
▁Louisiana	-10062
▁competing	-10063
▁detention	-10064
▁gathering	-10065
▁offseason	-10066
▁radiation	-10067
▁renewable	-10068
▁Protection	-10069
▁describing	-10070
▁occupation	-10071
▁physically	-10072
▁cooperation	-10073
▁maintenance	-10074
▁performances	-10075
▁manufacturers	-10076
87	-10077
".[	-10078
erg	-10079
lla	-10080
neg	-10081
▁2:	-10082
▁51	-10083
▁54	-10084
▁TR	-10085
acre	-10086
agic	-10087
assy	-10088
cour	-10089
etry	-10090
ixel	-10091
ixon	-10092
oker	-10093
omed	-10094
ping	-10095
▁2.0	-10096
▁23,	-10097
▁Gil	-10098
▁bow	-10099
▁joy	-10100
▁mit	-10101
▁nin	-10102
arget	-10103
asant	-10104
guson	-10105
ighth	-10106
imize	-10107
▁Find	-10108
▁Hung	-10109
▁Kyle	-10110
▁Mind	-10111
▁Poll	-10112
▁bump	-10113
▁butt	-10114
▁fulf	-10115
▁indu	-10116
▁quit	-10117
▁reck	-10118
▁sits	-10119
effect	-10120
income	-10121
▁Delhi	-10122
▁Fight	-10123
▁Round	-10124
▁Steel	-10125
▁Third	-10126
▁annoy	-10127
▁backs	-10128
▁genre	-10129
▁loose	-10130
▁rooms	-10131
▁sizes	-10132
▁Editor	-10133
▁Future	-10134
▁Michel	-10135
▁assemb	-10136
▁awards	-10137
▁colour	-10138
▁lifest	-10139
▁meters	-10140
▁mirror	-10141
▁permit	-10142
▁rounds	-10143
▁routes	-10144
▁singer	-10145
▁Antonio	-10146
▁Players	-10147
▁carries	-10148
▁corrupt	-10149
▁figured	-10150
▁signals	-10151
▁wanting	-10152
▁windows	-10153
▁Standard	-10154
▁disabled	-10155
▁employed	-10156
▁overcome	-10157
▁senators	-10158
vironments	-10159
▁dependent	-10160
▁streaming	-10161
▁engagement	-10162
▁impression	-10163
▁inequality	-10164
vertisements	-10165
▁inspiration	-10166
▁prosecution	-10167
▁unprecedented	-10168
-15	-10169
yes	-10170
▁("	-10171
▁EV	-10172
..."	-10173
ampa	-10174
awks	-10175
beat	-10176
hard	-10177
they	-10178
▁12-	-10179
▁Dri	-10180
▁Len	-10181
▁Tam	-10182
▁Var	-10183
▁ric	-10184
▁vig	-10185
acles	-10186
early	-10187
isdom	-10188
isive	-10189
throp	-10190
▁100%	-10191
▁1999	-10192
▁HTML	-10193
▁Trek	-10194
▁Vlad	-10195
▁Wiki	-10196
▁bass	-10197
▁buck	-10198
▁dish	-10199
▁dual	-10200
▁guid	-10201
▁nurs	-10202
▁tape	-10203
▁yell	-10204
istant	-10205
necess	-10206
ptions	-10207
▁Maine	-10208
▁Ocean	-10209
▁Quest	-10210
▁Table	-10211
▁angle	-10212
▁camps	-10213
▁creep	-10214
▁eager	-10215
▁spray	-10216
itivity	-10217
▁Beyond	-10218
▁Doctor	-10219
▁Nether	-10220
▁Wright	-10221
▁assass	-10222
▁beings	-10223
▁breath	-10224
▁consec	-10225
▁garden	-10226
▁praise	-10227
▁repair	-10228
▁seized	-10229
▁Natural	-10230
▁Stanley	-10231
▁bombing	-10232
▁dispute	-10233
▁graphic	-10234
▁lessons	-10235
▁organic	-10236
▁pleased	-10237
▁reveals	-10238
▁venture	-10239
▁Chairman	-10240
▁Stanford	-10241
▁adoption	-10242
▁criteria	-10243
▁diseases	-10244
▁displays	-10245
▁momentum	-10246
government	-10247
▁dominated	-10248
▁donations	-10249
▁identical	-10250
▁meanwhile	-10251
▁occasions	-10252
▁principal	-10253
▁uncomfort	-10254
▁executives	-10255
▁influenced	-10256
▁accusations	-10257
77	-10258
?’	-10259
FO	-10260
Go	-10261
Ob	-10262
hu	-10263
je	-10264
Ind	-10265
hot	-10266
oga	-10267
▁9.	-10268
▁NC	-10269
iley	-10270
oned	-10271
otte	-10272
rend	-10273
roph	-10274
▁10-	-10275
▁20-	-10276
▁Bes	-10277
▁Dak	-10278
▁Fix	-10279
▁Fun	-10280
▁McM	-10281
▁Opp	-10282
▁Sad	-10283
▁ori	-10284
erent	-10285
istle	-10286
quest	-10287
rator	-10288
▁(199	-10289
▁Burn	-10290
▁Deep	-10291
▁Hart	-10292
▁Holy	-10293
▁Marg	-10294
▁Roll	-10295
▁Stew	-10296
▁desp	-10297
▁mart	-10298
▁tale	-10299
▁thro	-10300
ancial	-10301
arency	-10302
ipedia	-10303
ompson	-10304
rifice	-10305
screen	-10306
vision	-10307
▁Psych	-10308
▁Roger	-10309
▁Sound	-10310
▁Speed	-10311
▁asset	-10312
▁honey	-10313
▁hosts	-10314
▁stamp	-10315
▁subur	-10316
▁vocal	-10317
▁Nevada	-10318
▁Ottawa	-10319
▁breast	-10320
▁distur	-10321
▁fabric	-10322
▁hiding	-10323
▁hiring	-10324
▁speeds	-10325
▁trends	-10326
appropri	-10327
isations	-10328
resident	-10329
▁Mississ	-10330
▁adviser	-10331
▁briefly	-10332
▁delayed	-10333
▁mandate	-10334
▁mothers	-10335
▁mystery	-10336
▁powered	-10337
▁publish	-10338
▁recruit	-10339
▁reforms	-10340
▁refugee	-10341
▁secular	-10342
▁shelter	-10343
▁stating	-10344
▁trailer	-10345
▁wealthy	-10346
▁Scottish	-10347
▁constitu	-10348
▁decrease	-10349
▁discount	-10350
▁everyday	-10351
▁memories	-10352
▁protocol	-10353
ailability	-10354
▁Obviously	-10355
▁anonymous	-10356
▁commander	-10357
▁launching	-10358
▁traveling	-10359
▁References	-10360
▁agreements	-10361
▁perception	-10362
▁procedures	-10363
▁provisions	-10364
▁PlayStation	-10365
▁constructed	-10366
▁intelligent	-10367
▁consciousness	-10368
BO	-10369
UC	-10370
vi	-10371
▁×	-10372
▁Da	-10373
code	-10374
gets	-10375
stop	-10376
will	-10377
▁29,	-10378
▁Alb	-10379
▁Dub	-10380
▁EPA	-10381
▁FDA	-10382
▁Les	-10383
▁Osc	-10384
▁ear	-10385
▁fur	-10386
▁sne	-10387
▁spo	-10388
apore	-10389
oping	-10390
utter	-10391
▁$100	-10392
▁Hend	-10393
▁Name	-10394
▁Orle	-10395
▁Resp	-10396
▁cler	-10397
▁cycl	-10398
▁fled	-10399
▁hire	-10400
accept	-10401
▁2006,	-10402
▁Drive	-10403
▁Peace	-10404
▁Sport	-10405
▁admin	-10406
▁cream	-10407
▁exped	-10408
▁ghost	-10409
▁radar	-10410
century	-10411
ificate	-10412
ocolate	-10413
▁Giants	-10414
▁Portug	-10415
▁Taiwan	-10416
▁Winter	-10417
▁circle	-10418
▁desert	-10419
▁detain	-10420
▁donors	-10421
▁intrig	-10422
▁killer	-10423
▁occurs	-10424
▁Collins	-10425
▁Rangers	-10426
▁Russell	-10427
▁Snowden	-10428
▁courage	-10429
▁evident	-10430
▁posting	-10431
▁rolling	-10432
▁soldier	-10433
▁bacteria	-10434
▁courtesy	-10435
▁frequent	-10436
▁keyboard	-10437
▁managers	-10438
▁produces	-10439
▁Copyright	-10440
▁cryptocur	-10441
▁expertise	-10442
▁struggles	-10443
▁delivering	-10444
▁mechanisms	-10445
▁Philippines	-10446
▁destination	-10447
▁exploration	-10448
▁speculation	-10449
▁collaboration	-10450
2-	-10451
94	-10452
Fi	-10453
GA	-10454
Se	-10455
uz	-10456
azy	-10457
don	-10458
roc	-10459
umm	-10460
▁68	-10461
▁SL	-10462
alid	-10463
arre	-10464
leep	-10465
offs	-10466
some	-10467
▁Cho	-10468
▁Gib	-10469
endar	-10470
omach	-10471
oting	-10472
▁Band	-10473
▁Mail	-10474
▁Nich	-10475
▁Rams	-10476
▁athe	-10477
▁belt	-10478
▁grid	-10479
▁inex	-10480
▁libr	-10481
▁toss	-10482
asting	-10483
istrib	-10484
▁Print	-10485
▁scrut	-10486
arently	-10487
istical	-10488
million	-10489
▁Leader	-10490
▁destro	-10491
▁gentle	-10492
▁labour	-10493
▁landed	-10494
▁manual	-10495
▁regret	-10496
▁resemb	-10497
▁robust	-10498
▁silent	-10499
▁tissue	-10500
▁verify	-10501
▁Caption	-10502
▁Manager	-10503
▁Phoenix	-10504
▁arrests	-10505
▁continu	-10506
▁dressed	-10507
▁fastest	-10508
▁flights	-10509
▁rewards	-10510
▁singing	-10511
▁viewing	-10512
▁Ferguson	-10513
▁accuracy	-10514
▁alliance	-10515
▁occupied	-10516
▁operates	-10517
▁recalled	-10518
▁replacing	-10519
▁difficulty	-10520
▁electrical	-10521
▁integrated	-10522
▁politician	-10523
▁distinction	-10524
▁integration	-10525
▁environments	-10526
▁advertisement	-10527
++	-10528
GM	-10529
TE	-10530
agh	-10531
dep	-10532
mid	-10533
mir	-10534
rac	-10535
uez	-10536
▁76	-10537
▁Ec	-10538
▁Ru	-10539
.[15	-10540
ahoo	-10541
bian	-10542
card	-10543
enez	-10544
geon	-10545
hero	-10546
iban	-10547
ieve	-10548
mart	-10549
oser	-10550
umph	-10551
▁Fif	-10552
▁HIV	-10553
▁Pow	-10554
▁Ref	-10555
▁lad	-10556
agine	-10557
apper	-10558
bered	-10559
itter	-10560
▁Benn	-10561
▁Gill	-10562
▁Hamp	-10563
▁Pers	-10564
▁Soft	-10565
▁Viol	-10566
▁Yang	-10567
▁barg	-10568
▁fert	-10569
▁lobb	-10570
▁mole	-10571
▁okay	-10572
ailing	-10573
alling	-10574
anyahu	-10575
tarian	-10576
terror	-10577
▁Blake	-10578
▁Jerry	-10579
▁Metro	-10580
▁Storm	-10581
▁fires	-10582
▁juris	-10583
▁strip	-10584
▁Knight	-10585
▁Senior	-10586
▁Turner	-10587
▁defect	-10588
▁kicked	-10589
▁layers	-10590
▁premie	-10591
▁riders	-10592
▁submit	-10593
▁tablet	-10594
▁Century	-10595
▁Climate	-10596
▁Orleans	-10597
▁Reserve	-10598
▁battles	-10599
▁debates	-10600
▁drought	-10601
▁endless	-10602
▁handled	-10603
▁notable	-10604
▁ranking	-10605
▁rebuild	-10606
▁Patriots	-10607
▁abstract	-10608
▁ceremony	-10609
▁coaching	-10610
▁dropping	-10611
▁migrants	-10612
▁pleasure	-10613
▁presents	-10614
▁treating	-10615
▁cognitive	-10616
▁headlines	-10617
▁privilege	-10618
▁realistic	-10619
▁residence	-10620
▁addressing	-10621
▁conviction	-10622
▁agriculture	-10623
▁interviewed	-10624
▁disappointed	-10625
▁participated	-10626
▁Environmental	-10627
9/	-10628
TO	-10629
eu	-10630
vo	-10631
NBC	-10632
Sem	-10633
dam	-10634
len	-10635
lli	-10636
▁Ry	-10637
0000	-10638
atus	-10639
gate	-10640
math	-10641
ques	-10642
reck	-10643
▁0.5	-10644
▁1.0	-10645
▁Ban	-10646
▁Buy	-10647
▁CON	-10648
▁Due	-10649
▁Hey	-10650
▁anc	-10651
▁bot	-10652
agger	-10653
arios	-10654
bably	-10655
chell	-10656
ocial	-10657
otion	-10658
track	-10659
urned	-10660
▁2002	-10661
▁Neil	-10662
▁Song	-10663
▁diam	-10664
▁fits	-10665
▁span	-10666
father	-10667
handed	-10668
rition	-10669
▁Based	-10670
▁Buddh	-10671
▁Singh	-10672
▁Tokyo	-10673
▁inher	-10674
▁sword	-10675
riminal	-10676
winning	-10677
▁Madrid	-10678
▁Posted	-10679
▁brands	-10680
▁brutal	-10681
▁burned	-10682
▁cigare	-10683
▁dreams	-10684
▁jumped	-10685
▁modest	-10686
▁Edition	-10687
▁Manning	-10688
▁Orlando	-10689
▁Stewart	-10690
▁Swedish	-10691
▁Tribune	-10692
▁applies	-10693
▁compass	-10694
▁couples	-10695
▁derived	-10696
▁hacking	-10697
▁hanging	-10698
▁secured	-10699
▁Continue	-10700
▁Olympics	-10701
▁Sessions	-10702
▁Thompson	-10703
▁ensuring	-10704
▁invested	-10705
▁pregnant	-10706
▁talented	-10707
▁Canadians	-10708
▁expanding	-10709
▁neighbors	-10710
▁Everything	-10711
▁complexity	-10712
▁frustrated	-10713
▁Furthermore	-10714
▁Kickstarter	-10715
▁frustration	-10716
▁uncertainty	-10717
▁dramatically	-10718
▁participation	-10719
.]	-10720
92	-10721
SE	-10722
ASH	-10723
Let	-10724
iac	-10725
rah	-10726
sub	-10727
▁57	-10728
▁99	-10729
▁EC	-10730
▁Kr	-10731
News	-10732
bery	-10733
open	-10734
wind	-10735
zone	-10736
▁800	-10737
▁AFP	-10738
▁Dal	-10739
▁Hug	-10740
▁Imp	-10741
eared	-10742
ifier	-10743
ophob	-10744
▁9/11	-10745
▁Cold	-10746
▁Dean	-10747
▁Gard	-10748
▁Mand	-10749
▁Pear	-10750
▁Tell	-10751
▁Type	-10752
▁ampl	-10753
▁coin	-10754
▁epid	-10755
▁golf	-10756
▁mamm	-10757
▁pour	-10758
ateful	-10759
lihood	-10760
▁Hamas	-10761
▁Hawai	-10762
▁Heart	-10763
▁Kerry	-10764
▁Kings	-10765
▁Phill	-10766
▁WATCH	-10767
▁abund	-10768
▁knock	-10769
▁marry	-10770
bitious	-10771
ilation	-10772
isition	-10773
osystem	-10774
▁Change	-10775
▁Hitler	-10776
▁Modern	-10777
▁Nelson	-10778
▁bullet	-10779
▁safely	-10780
▁scared	-10781
▁sevent	-10782
▁trains	-10783
▁viable	-10784
▁Manhatt	-10785
▁appeals	-10786
▁cleared	-10787
▁custody	-10788
▁formula	-10789
▁longest	-10790
▁Articles	-10791
▁Progress	-10792
▁Richmond	-10793
▁civilian	-10794
▁honestly	-10795
▁Armstrong	-10796
▁Elizabeth	-10797
▁Singapore	-10798
▁accepting	-10799
▁explosion	-10800
▁recession	-10801
▁wondering	-10802
▁Independent	-10803
▁Netherlands	-10804
▁transferred	-10805
▁translation	-10806
▁revolutionary	-10807
▁technological	-10808
43	-10809
AY	-10810
PL	-10811
Qu	-10812
aa	-10813
).[	-10814
Now	-10815
oca	-10816
oft	-10817
onz	-10818
rin	-10819
sur	-10820
vol	-10821
▁(0	-10822
▁8.	-10823
▁85	-10824
▁Bh	-10825
▁FR	-10826
▁Wy	-10827
▁mm	-10828
east	-10829
flix	-10830
good	-10831
iden	-10832
imir	-10833
ippi	-10834
pack	-10835
rock	-10836
such	-10837
▁Cat	-10838
▁Kal	-10839
▁Map	-10840
asted	-10841
block	-10842
nered	-10843
owned	-10844
white	-10845
▁Blog	-10846
▁Cher	-10847
▁Drug	-10848
▁Karl	-10849
▁Kill	-10850
▁Mitt	-10851
▁Save	-10852
▁Scar	-10853
▁cens	-10854
▁cock	-10855
▁dism	-10856
▁euro	-10857
▁forb	-10858
▁lets	-10859
▁seed	-10860
▁snap	-10861
former	-10862
ixture	-10863
▁Bruce	-10864
▁Comey	-10865
▁Evans	-10866
▁Hindu	-10867
▁Trust	-10868
▁shame	-10869
reshold	-10870
zerland	-10871
▁Father	-10872
▁Summer	-10873
▁accord	-10874
▁duties	-10875
▁oppose	-10876
▁pledge	-10877
▁racism	-10878
▁subtle	-10879
▁suspic	-10880
▁treaty	-10881
breaking	-10882
citation	-10883
▁Command	-10884
▁borders	-10885
▁delight	-10886
▁existed	-10887
▁exploit	-10888
▁harmful	-10889
▁stomach	-10890
▁theater	-10891
▁Lawrence	-10892
▁Memorial	-10893
▁Military	-10894
▁confused	-10895
▁defended	-10896
▁executed	-10897
▁mathemat	-10898
▁sections	-10899
▁severely	-10900
▁Manhattan	-10901
▁associate	-10902
▁breakdown	-10903
▁correctly	-10904
▁departure	-10905
▁editorial	-10906
▁motivated	-10907
▁mountains	-10908
▁projected	-10909
▁prospects	-10910
▁sacrifice	-10911
▁screening	-10912
▁separated	-10913
▁signature	-10914
▁variables	-10915
▁complained	-10916
▁compromise	-10917
▁controller	-10918
▁designated	-10919
▁girlfriend	-10920
▁harassment	-10921
▁occasional	-10922
▁respective	-10923
▁eliminating	-10924
▁initiatives	-10925
▁newsletters	-10926
▁compensation	-10927
▁developments	-10928
▁possibilities	-10929
▁interpretation	-10930
1-	-10931
QL	-10932
}}	-10933
~~	-10934
CAA	-10935
Res	-10936
err	-10937
iar	-10938
ika	-10939
rot	-10940
▁(7	-10941
▁FA	-10942
atre	-10943
glas	-10944
mers	-10945
rows	-10946
▁Fle	-10947
▁Sac	-10948
▁Yan	-10949
▁arc	-10950
▁bol	-10951
▁fut	-10952
▁haz	-10953
amous	-10954
gence	-10955
gered	-10956
ouses	-10957
owski	-10958
▁Coal	-10959
▁Date	-10960
▁Prom	-10961
▁Side	-10962
▁beef	-10963
▁flip	-10964
▁mock	-10965
▁peer	-10966
▁rook	-10967
▁scar	-10968
▁torn	-10969
commun	-10970
inally	-10971
rators	-10972
urches	-10973
vation	-10974
▁Fried	-10975
▁Imper	-10976
▁Money	-10977
▁Prior	-10978
▁Terry	-10979
▁Think	-10980
▁Venez	-10981
▁adequ	-10982
▁arena	-10983
▁beers	-10984
▁ought	-10985
▁theft	-10986
itement	-10987
▁Regard	-10988
▁babies	-10989
▁deemed	-10990
▁guards	-10991
▁luxury	-10992
▁packed	-10993
▁patrol	-10994
▁summit	-10995
▁wisdom	-10996
ventions	-10997
▁Between	-10998
▁auction	-10999
▁beneath	-11000
▁cabinet	-11001
▁closest	-11002
▁fucking	-11003
▁islands	-11004
▁minimal	-11005
▁nervous	-11006
▁notably	-11007
▁physics	-11008
▁reserve	-11009
▁Campaign	-11010
▁Robinson	-11011
▁Victoria	-11012
▁blocking	-11013
▁educated	-11014
▁engaging	-11015
▁preserve	-11016
▁engineers	-11017
▁partially	-11018
▁JavaScript	-11019
▁productive	-11020
▁influential	-11021
▁surprisingly	-11022
▁uncomfortable	-11023
::	-11024
Ne	-11025
hr	-11026
-16	-11027
.17	-11028
Ass	-11029
IGH	-11030
has	-11031
tor	-11032
vas	-11033
▁).	-11034
▁4-	-11035
▁4:	-11036
▁BC	-11037
▁PH	-11038
▁Rh	-11039
▁UI	-11040
.[1]	-11041
cope	-11042
erer	-11043
kind	-11044
omic	-11045
orge	-11046
quer	-11047
rait	-11048
thur	-11049
user	-11050
▁31,	-11051
▁Cry	-11052
▁Rap	-11053
▁Sin	-11054
▁Tol	-11055
▁jet	-11056
▁roy	-11057
charg	-11058
ebook	-11059
itate	-11060
named	-11061
range	-11062
suing	-11063
▁1996	-11064
▁Barb	-11065
▁Bond	-11066
▁Jess	-11067
▁Leaf	-11068
▁ages	-11069
▁bulk	-11070
▁cops	-11071
▁iPad	-11072
▁keen	-11073
▁meth	-11074
▁tune	-11075
minded	-11076
▁Wayne	-11077
▁artif	-11078
▁cinem	-11079
▁fluid	-11080
▁greet	-11081
▁lanes	-11082
▁seeks	-11083
▁steam	-11084
▁traff	-11085
anguage	-11086
atching	-11087
emplate	-11088
▁Hunter	-11089
▁Malays	-11090
▁Morris	-11091
▁Mother	-11092
▁filter	-11093
▁flavor	-11094
▁poster	-11095
▁urging	-11096
igration	-11097
▁Commons	-11098
▁Express	-11099
▁courses	-11100
▁exhaust	-11101
▁pending	-11102
▁prosper	-11103
▁ranging	-11104
▁sectors	-11105
▁spotted	-11106
▁tension	-11107
▁advocacy	-11108
▁charging	-11109
▁crossing	-11110
▁operated	-11111
▁opposing	-11112
▁packages	-11113
▁peaceful	-11114
▁resolved	-11115
▁unveiled	-11116
▁Netanyahu	-11117
▁breathing	-11118
▁ecosystem	-11119
▁expecting	-11120
▁fundament	-11121
▁passenger	-11122
▁publisher	-11123
▁respected	-11124
▁scenarios	-11125
▁sophistic	-11126
▁attributed	-11127
▁celebrated	-11128
▁compelling	-11129
▁disclosure	-11130
▁preventing	-11131
▁restricted	-11132
▁suspicious	-11133
▁Corporation	-11134
▁exclusively	-11135
By	-11136
ón	-11137
”)	-11138
acc	-11139
agu	-11140
oyd	-11141
pen	-11142
ync	-11143
▁58	-11144
▁Pi	-11145
agen	-11146
arma	-11147
grad	-11148
olds	-11149
▁Mov	-11150
▁avo	-11151
▁eru	-11152
▁fru	-11153
▁pir	-11154
▁unl	-11155
acies	-11156
arded	-11157
human	-11158
ocity	-11159
table	-11160
ubble	-11161
words	-11162
▁1930	-11163
▁1995	-11164
▁1997	-11165
▁Anti	-11166
▁Cinc	-11167
▁Conc	-11168
▁Dick	-11169
▁Farm	-11170
▁Reid	-11171
▁boom	-11172
▁hunt	-11173
▁kiss	-11174
▁knee	-11175
▁puck	-11176
▁riot	-11177
▁stir	-11178
▁whis	-11179
abling	-11180
alysis	-11181
holder	-11182
innati	-11183
▁Tampa	-11184
▁Tower	-11185
▁climb	-11186
▁eleph	-11187
▁globe	-11188
▁ignor	-11189
▁jihad	-11190
▁mouse	-11191
▁orbit	-11192
▁parad	-11193
▁parks	-11194
▁shops	-11195
▁trips	-11196
▁twist	-11197
▁width	-11198
▁wound	-11199
istance	-11200
urities	-11201
western	-11202
▁Alaska	-11203
▁Arctic	-11204
▁Search	-11205
▁bother	-11206
▁elabor	-11207
▁excuse	-11208
▁panels	-11209
▁patent	-11210
▁planes	-11211
izations	-11212
▁Leonard	-11213
▁Members	-11214
▁Netflix	-11215
▁affects	-11216
▁caution	-11217
▁fitness	-11218
▁nowhere	-11219
▁theoret	-11220
▁Partners	-11221
▁averaged	-11222
▁bankrupt	-11223
▁firearms	-11224
▁heritage	-11225
▁horrible	-11226
▁imprison	-11227
▁modified	-11228
▁reflects	-11229
▁unnecess	-11230
▁Political	-11231
▁ambitious	-11232
▁favourite	-11233
▁forgotten	-11234
▁incorrect	-11235
▁witnessed	-11236
▁assumption	-11237
▁capitalism	-11238
▁destroying	-11239
▁documented	-11240
▁priorities	-11241
▁Switzerland	-11242
▁accompanied	-11243
▁controlling	-11244
▁considerable	-11245
▁neighborhoods	-11246
("	-11247
De	-11248
OK	-11249
és	-11250
-19	-11251
.[7	-11252
bin	-11253
cal	-11254
gal	-11255
nan	-11256
nty	-11257
▁00	-11258
▁Ay	-11259
▁Wi	-11260
-200	-11261
ante	-11262
arer	-11263
brew	-11264
feed	-11265
gree	-11266
inst	-11267
ivan	-11268
mare	-11269
oard	-11270
ulty	-11271
▁FOR	-11272
▁Lie	-11273
▁gri	-11274
▁jer	-11275
acent	-11276
anium	-11277
polit	-11278
storm	-11279
thood	-11280
udeau	-11281
uther	-11282
▁Hann	-11283
▁Jake	-11284
▁Salt	-11285
▁Talk	-11286
▁Todd	-11287
▁ally	-11288
▁evac	-11289
▁flav	-11290
▁shed	-11291
▁stun	-11292
▁void	-11293
earing	-11294
icient	-11295
ippers	-11296
onduct	-11297
orable	-11298
points	-11299
▁Brady	-11300
▁Laure	-11301
▁Pence	-11302
▁Posts	-11303
▁antib	-11304
▁chaos	-11305
▁grows	-11306
▁rhyth	-11307
profile	-11308
▁Abbott	-11309
▁Deputy	-11310
▁Forest	-11311
▁Hispan	-11312
▁Mobile	-11313
▁Object	-11314
▁drones	-11315
▁jurisd	-11316
▁lifted	-11317
▁reluct	-11318
▁rushed	-11319
tainment	-11320
▁Douglas	-11321
▁Trudeau	-11322
▁avoided	-11323
▁embrace	-11324
▁polling	-11325
▁portfol	-11326
▁preview	-11327
▁Russians	-11328
▁Venezuel	-11329
▁arriving	-11330
▁branches	-11331
▁endorsed	-11332
▁flexible	-11333
▁psychiat	-11334
▁Financial	-11335
▁Similarly	-11336
▁attitudes	-11337
▁automatic	-11338
▁confusion	-11339
▁delegates	-11340
▁encounter	-11341
▁infection	-11342
▁overnight	-11343
▁socialist	-11344
appropriate	-11345
▁Cincinnati	-11346
▁challenged	-11347
▁newspapers	-11348
▁suspension	-11349
▁contemporary	-11350
▁registration	-11351
▁transparency	-11352
48	-11353
Ps	-11354
SW	-11355
.[6	-11356
10]	-11357
12]	-11358
300	-11359
dog	-11360
wau	-11361
zes	-11362
▁5-	-11363
▁CC	-11364
▁Cu	-11365
▁ED	-11366
▁Ga	-11367
▁RO	-11368
VERT	-11369
anim	-11370
aria	-11371
comp	-11372
hire	-11373
icut	-11374
ista	-11375
mble	-11376
olas	-11377
olid	-11378
pert	-11379
week	-11380
xide	-11381
▁10%	-11382
▁180	-11383
▁Amb	-11384
▁Say	-11385
▁voc	-11386
While	-11387
leted	-11388
osaur	-11389
▁Load	-11390
▁NCAA	-11391
▁Rank	-11392
▁Sche	-11393
▁cake	-11394
▁damn	-11395
▁fare	-11396
▁till	-11397
▁ugly	-11398
waukee	-11399
▁Books	-11400
▁Cloud	-11401
▁Griff	-11402
▁Guide	-11403
▁Model	-11404
▁Rubio	-11405
▁Treat	-11406
▁accum	-11407
▁cheer	-11408
▁crude	-11409
▁dealt	-11410
▁decor	-11411
▁fails	-11412
▁flour	-11413
▁inaug	-11414
▁inbox	-11415
icating	-11416
ighters	-11417
▁Forces	-11418
▁Poland	-11419
▁WikiLe	-11420
▁anonym	-11421
▁beaten	-11422
▁boards	-11423
▁indict	-11424
▁predec	-11425
▁punish	-11426
▁steady	-11427
▁styles	-11428
election	-11429
liminary	-11430
▁Airport	-11431
▁Sheriff	-11432
▁Taliban	-11433
▁barrier	-11434
▁checked	-11435
▁cluster	-11436
▁devoted	-11437
▁enabled	-11438
▁ethical	-11439
▁examine	-11440
▁removal	-11441
▁restore	-11442
▁starter	-11443
▁Mitchell	-11444
▁Panthers	-11445
▁Vladimir	-11446
▁contrary	-11447
▁demanded	-11448
▁deployed	-11449
▁entrance	-11450
▁guidance	-11451
▁ideology	-11452
▁inherent	-11453
▁monetary	-11454
▁removing	-11455
▁revenues	-11456
▁speakers	-11457
▁Pinterest	-11458
▁Something	-11459
▁Ukrainian	-11460
▁gradually	-11461
▁predicted	-11462
▁pregnancy	-11463
▁threshold	-11464
▁parameters	-11465
▁Mississippi	-11466
▁credibility	-11467
▁highlighted	-11468
▁photographs	-11469
▁confirmation	-11470
▁investigated	-11471
▁significance	-11472
Co	-11473
UM	-11474
hh	-11475
▁?	-11476
16]	-11477
20]	-11478
AST	-11479
Yes	-11480
asm	-11481
cca	-11482
cop	-11483
ims	-11484
▁(8	-11485
▁BE	-11486
▁RA	-11487
▁SW	-11488
▁Ta	-11489
.[5]	-11490
elve	-11491
issa	-11492
orph	-11493
race	-11494
ttes	-11495
untu	-11496
▁$25	-11497
▁Blu	-11498
▁Dog	-11499
▁Dor	-11500
▁Imm	-11501
▁Mom	-11502
▁Pod	-11503
▁SEC	-11504
▁Shi	-11505
▁Tan	-11506
▁wet	-11507
armed	-11508
ighed	-11509
press	-11510
shirt	-11511
▁Aren	-11512
▁Buck	-11513
▁Clar	-11514
▁Hans	-11515
▁Lang	-11516
▁Stri	-11517
▁Text	-11518
▁Whit	-11519
▁Word	-11520
▁cosm	-11521
▁lean	-11522
▁loop	-11523
▁meal	-11524
▁reun	-11525
cribed	-11526
orneys	-11527
seless	-11528
umbled	-11529
▁Asked	-11530
▁Brand	-11531
▁Ghost	-11532
▁Laura	-11533
▁Perry	-11534
▁Robin	-11535
▁bonds	-11536
▁obser	-11537
▁overd	-11538
▁pharm	-11539
▁steal	-11540
▁tanks	-11541
▁Altern	-11542
▁Hockey	-11543
▁Marine	-11544
▁Orange	-11545
▁Parker	-11546
▁Spirit	-11547
▁Strong	-11548
▁absurd	-11549
▁comics	-11550
▁filing	-11551
▁finals	-11552
▁folder	-11553
▁golden	-11554
▁immune	-11555
▁volunt	-11556
▁wishes	-11557
etheless	-11558
▁Carroll	-11559
▁actress	-11560
▁evolved	-11561
▁impress	-11562
▁missile	-11563
▁pension	-11564
▁reconst	-11565
▁shooter	-11566
gregation	-11567
▁Arkansas	-11568
▁bathroom	-11569
▁churches	-11570
▁emphasis	-11571
▁offshore	-11572
▁Charlotte	-11573
▁audiences	-11574
▁container	-11575
▁defenders	-11576
▁incentive	-11577
▁instantly	-11578
▁libraries	-11579
▁lifestyle	-11580
▁sentences	-11581
▁subsidies	-11582
▁taxpayers	-11583
▁teammates	-11584
▁acceptable	-11585
▁commentary	-11586
▁households	-11587
▁consecutive	-11588
▁instruction	-11589
▁contributing	-11590
▁installation	-11591
▁Entertainment	-11592
▁documentation	-11593
1/	-11594
CO	-11595
UD	-11596
_{	-11597
mn	-11598
py	-11599
11]	-11600
IDS	-11601
cap	-11602
fix	-11603
pot	-11604
▁72	-11605
▁CR	-11606
▁Ub	-11607
Some	-11608
home	-11609
obby	-11610
ulse	-11611
▁Bir	-11612
▁Fro	-11613
▁McD	-11614
▁Nav	-11615
▁Tab	-11616
▁adj	-11617
▁asc	-11618
▁ash	-11619
▁bio	-11620
▁tob	-11621
▁tum	-11622
EMENT	-11623
books	-11624
borne	-11625
eness	-11626
istol	-11627
iture	-11628
leton	-11629
orses	-11630
ortex	-11631
speed	-11632
suits	-11633
visor	-11634
▁Beat	-11635
▁Conn	-11636
▁Lady	-11637
▁Morm	-11638
▁Stre	-11639
▁cave	-11640
▁dose	-11641
▁leak	-11642
▁nick	-11643
▁node	-11644
▁scan	-11645
▁tong	-11646
▁tons	-11647
▁wise	-11648
▁wore	-11649
▁yard	-11650
bourne	-11651
celona	-11652
ployed	-11653
▁Blair	-11654
▁Block	-11655
▁Craig	-11656
▁Level	-11657
▁Swiss	-11658
▁alike	-11659
▁aspir	-11660
▁awful	-11661
▁bases	-11662
▁diver	-11663
▁immun	-11664
▁ordin	-11665
▁patri	-11666
▁pound	-11667
▁yours	-11668
aternal	-11669
▁Dakota	-11670
▁Inside	-11671
▁Queens	-11672
▁Rodrig	-11673
▁colleg	-11674
▁compat	-11675
▁conced	-11676
▁contam	-11677
▁iconic	-11678
▁interf	-11679
▁slower	-11680
▁trucks	-11681
atherine	-11682
aughters	-11683
formance	-11684
ortunate	-11685
▁Imagine	-11686
▁Lebanon	-11687
▁Looking	-11688
▁carrier	-11689
▁earning	-11690
▁earthqu	-11691
▁expects	-11692
▁verdict	-11693
istically	-11694
▁assembly	-11695
▁astronom	-11696
▁balanced	-11697
▁checking	-11698
▁formally	-11699
▁fraction	-11700
▁infected	-11701
▁licensed	-11702
▁marginal	-11703
▁reviewed	-11704
▁survived	-11705
▁Hampshire	-11706
▁Wikipedia	-11707
▁appealing	-11708
▁creatures	-11709
▁economics	-11710
▁economist	-11711
▁impressed	-11712
▁intensity	-11713
▁investing	-11714
▁penalties	-11715
▁reactions	-11716
▁altogether	-11717
▁ambassador	-11718
▁comparable	-11719
▁diplomatic	-11720
▁explicitly	-11721
▁mechanical	-11722
▁mysterious	-11723
▁references	-11724
▁Connecticut	-11725
▁consequence	-11726
▁Congressional	-11727
39	-11728
?)	-11729
IO	-11730
Me	-11731
ND	-11732
1][	-11733
squ	-11734
▁59	-11735
▁FO	-11736
▁Kl	-11737
▁MI	-11738
▁RC	-11739
▁pm	-11740
.[2]	-11741
anka	-11742
aton	-11743
bart	-11744
gged	-11745
rank	-11746
riel	-11747
stal	-11748
town	-11749
unct	-11750
▁(3)	-11751
▁0.1	-11752
▁360	-11753
▁600	-11754
▁Bos	-11755
▁Emb	-11756
▁Pok	-11757
▁Tig	-11758
▁bip	-11759
▁biz	-11760
▁cod	-11761
▁nan	-11762
▁spy	-11763
atile	-11764
avery	-11765
being	-11766
chron	-11767
isode	-11768
uably	-11769
▁Brus	-11770
▁Diff	-11771
▁Gray	-11772
▁Pick	-11773
▁Self	-11774
▁Shan	-11775
▁acid	-11776
▁epic	-11777
▁halt	-11778
▁tang	-11779
VERTIS	-11780
keeper	-11781
mitted	-11782
mother	-11783
ronics	-11784
▁Armen	-11785
▁Solar	-11786
▁badly	-11787
▁grace	-11788
▁grasp	-11789
▁risen	-11790
▁trash	-11791
achment	-11792
▁grocer	-11793
▁junior	-11794
▁prayer	-11795
▁rumors	-11796
▁Alberta	-11797
▁Belgium	-11798
▁Buffalo	-11799
▁Contact	-11800
▁Morning	-11801
▁Thunder	-11802
▁combine	-11803
▁hosting	-11804
▁logical	-11805
▁painful	-11806
▁partial	-11807
▁qualify	-11808
▁trapped	-11809
▁ADVERTIS	-11810
▁Broadway	-11811
▁Investig	-11812
▁Medicare	-11813
▁consists	-11814
▁contents	-11815
▁enjoying	-11816
▁examined	-11817
▁headline	-11818
▁lineback	-11819
▁navigate	-11820
▁reserved	-11821
▁stopping	-11822
▁suitable	-11823
▁Barcelona	-11824
▁WikiLeaks	-11825
▁converted	-11826
▁criminals	-11827
▁interrupt	-11828
▁ministers	-11829
▁permitted	-11830
▁releasing	-11831
▁revealing	-11832
▁aggression	-11833
▁continuous	-11834
▁enterprise	-11835
▁helicopter	-11836
▁suggestion	-11837
▁preparation	-11838
▁sensitivity	-11839
▁availability	-11840
▁demonstration	-11841
▁functionality	-11842
57	-11843
NE	-11844
Of	-11845
Su	-11846
Ty	-11847
gi	-11848
600	-11849
ECT	-11850
Pal	-11851
eck	-11852
erb	-11853
jan	-11854
lif	-11855
llo	-11856
rup	-11857
utt	-11858
▁$9	-11859
▁</	-11860
▁DM	-11861
▁EX	-11862
▁tu	-11863
.[3]	-11864
Just	-11865
aman	-11866
idth	-11867
orig	-11868
rint	-11869
tery	-11870
▁Beh	-11871
▁Esc	-11872
▁Loc	-11873
▁Sep	-11874
▁fet	-11875
▁gym	-11876
arest	-11877
encer	-11878
izont	-11879
ollar	-11880
piece	-11881
pring	-11882
stock	-11883
ugged	-11884
▁Anne	-11885
▁Bash	-11886
▁Celt	-11887
▁Emer	-11888
▁Koch	-11889
▁Surv	-11890
▁Want	-11891
▁sued	-11892
▁suic	-11893
▁turb	-11894
idding	-11895
school	-11896
▁Blues	-11897
▁Lynch	-11898
▁Niger	-11899
▁Visit	-11900
▁dirty	-11901
▁fract	-11902
▁fuels	-11903
▁pione	-11904
▁procl	-11905
▁shake	-11906
▁squee	-11907
▁utter	-11908
founder	-11909
leading	-11910
rencies	-11911
▁Fisher	-11912
▁Philip	-11913
▁commod	-11914
▁exempt	-11915
▁impose	-11916
▁laptop	-11917
▁makers	-11918
▁marine	-11919
▁offset	-11920
▁settle	-11921
▁tunnel	-11922
▁unrest	-11923
▁wheels	-11924
munition	-11925
▁Country	-11926
▁Speaker	-11927
▁advised	-11928
▁curious	-11929
▁decides	-11930
▁feeding	-11931
▁fingers	-11932
▁fishing	-11933
▁focuses	-11934
▁liberty	-11935
▁quantum	-11936
▁shorter	-11937
▁thereby	-11938
lementary	-11939
▁counties	-11940
▁deserves	-11941
▁donation	-11942
▁entities	-11943
▁rotation	-11944
▁stunning	-11945
▁tendency	-11946
▁attracted	-11947
▁divisions	-11948
▁explosive	-11949
▁sustained	-11950
▁switching	-11951
▁telephone	-11952
▁compliance	-11953
▁definitive	-11954
▁proportion	-11955
▁responding	-11956
▁supposedly	-11957
▁identifying	-11958
▁accomplished	-11959
▁Representatives	-11960
xx	-11961
▁·	-11962
ESS	-11963
ILL	-11964
Mus	-11965
eor	-11966
hol	-11967
hou	-11968
▁Hi	-11969
▁Na	-11970
▁VA	-11971
▁fo	-11972
ATED	-11973
▁0.4	-11974
▁15-	-11975
▁250	-11976
▁Abu	-11977
▁FCC	-11978
▁Fab	-11979
▁Lad	-11980
▁NEW	-11981
▁Tel	-11982
amine	-11983
anded	-11984
erald	-11985
imens	-11986
jamin	-11987
pered	-11988
story	-11989
▁Bros	-11990
▁Cell	-11991
▁Luke	-11992
▁Need	-11993
▁Past	-11994
▁Rail	-11995
▁bags	-11996
▁bits	-11997
▁fart	-11998
▁font	-11999
▁tent	-12000
charge	-12001
ersion	-12002
irable	-12003
manuel	-12004
▁2004,	-12005
▁Bobby	-12006
▁Domin	-12007
▁Mario	-12008
▁Mason	-12009
▁Stock	-12010
▁drops	-12011
▁humor	-12012
▁inhab	-12013
▁metab	-12014
▁reign	-12015
▁resur	-12016
▁stats	-12017
▁tempt	-12018
▁tower	-12019
▁vegan	-12020
because	-12021
ovation	-12022
success	-12023
▁Anyone	-12024
▁Issues	-12025
▁Legisl	-12026
▁Resear	-12027
▁Saints	-12028
▁backup	-12029
▁differ	-12030
▁hybrid	-12031
▁makeup	-12032
▁persec	-12033
▁Austria	-12034
▁Besides	-12035
▁Getting	-12036
▁Profile	-12037
▁assists	-12038
▁beloved	-12039
▁cocaine	-12040
▁corners	-12041
▁distant	-12042
▁editing	-12043
▁immense	-12044
▁locally	-12045
▁reaches	-12046
▁tobacco	-12047
▁wedding	-12048
▁winners	-12049
forcement	-12050
▁Marshall	-12051
▁arguably	-12052
▁composed	-12053
▁compound	-12054
▁feminist	-12055
▁meantime	-12056
▁missiles	-12057
▁outbreak	-12058
▁reserves	-12059
▁sleeping	-12060
▁stressed	-12061
acceptable	-12062
▁alternate	-12063
▁appearing	-12064
▁diagnosed	-12065
▁mandatory	-12066
▁migration	-12067
▁prototype	-12068
▁announcing	-12069
▁publishers	-12070
▁citizenship	-12071
▁devastating	-12072
▁imagination	-12073
▁introducing	-12074
▁photography	-12075
▁questioning	-12076
▁suggestions	-12077
▁experiencing	-12078
▁configuration	-12079
68	-12080
AV	-12081
BN	-12082
Or	-12083
ahn	-12084
bie	-12085
bus	-12086
div	-12087
uri	-12088
uto	-12089
▁63	-12090
▁DS	-12091
addy	-12092
bean	-12093
best	-12094
emin	-12095
flow	-12096
gary	-12097
ggle	-12098
haul	-12099
icts	-12100
live	-12101
lynn	-12102
uced	-12103
ulum	-12104
viol	-12105
zech	-12106
▁$50	-12107
▁BJP	-12108
▁Bol	-12109
▁Hus	-12110
▁Naz	-12111
▁Tib	-12112
▁Ton	-12113
▁oxy	-12114
count	-12115
oples	-12116
sized	-12117
start	-12118
▁Brun	-12119
▁Deal	-12120
▁Fant	-12121
▁Garc	-12122
▁Khan	-12123
▁Less	-12124
▁Palm	-12125
▁Very	-12126
▁buzz	-12127
▁lady	-12128
▁misc	-12129
▁ster	-12130
▁ther	-12131
ernand	-12132
gments	-12133
olitan	-12134
orient	-12135
roller	-12136
second	-12137
▁Along	-12138
▁Breit	-12139
▁Citiz	-12140
▁Creek	-12141
▁Keith	-12142
▁Saint	-12143
▁Years	-12144
▁acted	-12145
▁bands	-12146
▁cease	-12147
▁cruel	-12148
▁depos	-12149
▁panic	-12150
▁sends	-12151
▁shore	-12152
▁tends	-12153
powered	-12154
thereum	-12155
▁Awards	-12156
▁Better	-12157
▁Dennis	-12158
▁Hawaii	-12159
▁Murphy	-12160
▁Record	-12161
▁Return	-12162
▁Travel	-12163
▁agrees	-12164
▁catast	-12165
▁nights	-12166
▁pepper	-12167
▁rivals	-12168
▁rookie	-12169
▁solely	-12170
▁unfold	-12171
▁worthy	-12172
▁Circuit	-12173
▁Liberty	-12174
▁Records	-12175
▁Verizon	-12176
▁backers	-12177
▁credits	-12178
▁hackers	-12179
▁hopeful	-12180
▁lacking	-12181
▁placing	-12182
▁pressed	-12183
▁readily	-12184
▁tackles	-12185
▁vaccine	-12186
▁Together	-12187
▁generous	-12188
▁instinct	-12189
▁magnetic	-12190
▁morality	-12191
▁scrutiny	-12192
▁Chronicle	-12193
▁chemicals	-12194
▁excessive	-12195
▁finishing	-12196
▁mechanics	-12197
▁prevented	-12198
▁sponsored	-12199
▁ammunition	-12200
▁completion	-12201
▁directions	-12202
▁discipline	-12203
▁objectives	-12204
▁prosecutor	-12205
▁conclusions	-12206
▁declaration	-12207
▁protections	-12208
▁transformed	-12209
▁unfortunate	-12210
▁Indianapolis	-12211
▁experimental	-12212
▁transmission	-12213
▁participating	-12214
▁Advertisements	-12215
▁transformation	-12216
.:	-12217
/3	-12218
Ad	-12219
Os	-12220
oj	-12221
▁!	-12222
17]	-12223
Net	-12224
aco	-12225
▁Pa	-12226
.[13	-12227
feld	-12228
fers	-12229
oria	-12230
plan	-12231
rape	-12232
seud	-12233
vens	-12234
▁***	-12235
▁192	-12236
▁Guy	-12237
▁Jav	-12238
▁Lem	-12239
▁MMA	-12240
▁Nep	-12241
▁Nin	-12242
▁Pap	-12243
▁Ped	-12244
▁Toy	-12245
▁lau	-12246
Qaeda	-12247
about	-12248
https	-12249
iated	-12250
ignty	-12251
oween	-12252
valid	-12253
width	-12254
▁$500	-12255
▁Carr	-12256
▁Hide	-12257
▁Hond	-12258
▁Modi	-12259
▁Must	-12260
▁Nort	-12261
▁Seah	-12262
▁Tele	-12263
▁conj	-12264
▁cous	-12265
▁neur	-12266
▁pays	-12267
▁pose	-12268
▁suck	-12269
health	-12270
insula	-12271
otypes	-12272
parent	-12273
remlin	-12274
usters	-12275
▁Blood	-12276
▁Draft	-12277
▁Happy	-12278
▁Jimmy	-12279
▁Princ	-12280
▁Produ	-12281
▁edges	-12282
▁essay	-12283
▁knife	-12284
▁screw	-12285
▁walks	-12286
▁Garden	-12287
▁Legend	-12288
▁Nobody	-12289
▁Oxford	-12290
▁Rogers	-12291
▁ancest	-12292
▁breach	-12293
▁comply	-12294
▁equity	-12295
▁freely	-12296
▁habits	-12297
▁labels	-12298
▁lesser	-12299
▁thirty	-12300
missions	-12301
▁Bernard	-12302
▁Bradley	-12303
▁Friends	-12304
▁bullets	-12305
▁coastal	-12306
▁execute	-12307
▁filling	-12308
▁gaining	-12309
▁neglect	-12310
▁outdoor	-12311
▁startup	-12312
▁advances	-12313
▁annually	-12314
▁applying	-12315
▁earnings	-12316
▁interven	-12317
▁overlook	-12318
▁pressing	-12319
▁resigned	-12320
▁romantic	-12321
▁sessions	-12322
▁vertical	-12323
▁Milwaukee	-12324
▁attorneys	-12325
▁batteries	-12326
▁condemned	-12327
▁considers	-12328
▁reflected	-12329
▁variation	-12330
▁Ultimately	-12331
▁calculated	-12332
▁collecting	-12333
▁preference	-12334
▁presumably	-12335
▁Engineering	-12336
▁anticipated	-12337
▁celebration	-12338
▁certificate	-12339
▁frustrating	-12340
▁limitations	-12341
▁resignation	-12342
▁unnecessary	-12343
▁Commissioner	-12344
▁Nevertheless	-12345
▁agricultural	-12346
▁deliberately	-12347
▁observations	-12348
▁organisations	-12349
93	-12350
DB	-12351
SU	-12352
Te	-12353
zb	-12354
ür	-12355
▁à	-12356
800	-12357
Cal	-12358
ICE	-12359
Mar	-12360
Rep	-12361
big	-12362
byn	-12363
gam	-12364
jpg	-12365
oup	-12366
rak	-12367
rik	-12368
tte	-12369
ugs	-12370
wal	-12371
▁74	-12372
▁BL	-12373
▁HR	-12374
▁Ki	-12375
▁MD	-12376
▁Rs	-12377
▁od	-12378
.[6]	-12379
crat	-12380
drop	-12381
ello	-12382
hill	-12383
ilst	-12384
isen	-12385
lett	-12386
link	-12387
rate	-12388
ulpt	-12389
when	-12390
▁50%	-12391
▁Jun	-12392
▁PhD	-12393
▁fel	-12394
▁mph	-12395
Semit	-12396
coins	-12397
eches	-12398
immer	-12399
keley	-12400
kward	-12401
matic	-12402
ollah	-12403
watch	-12404
▁Beck	-12405
▁Cand	-12406
▁Cann	-12407
▁Days	-12408
▁Dest	-12409
▁Jets	-12410
▁Joel	-12411
▁Kane	-12412
▁Luck	-12413
▁Nine	-12414
▁demo	-12415
▁flew	-12416
▁hill	-12417
▁href	-12418
▁sons	-12419
▁styl	-12420
▁vibr	-12421
▁wand	-12422
iberal	-12423
istani	-12424
ousing	-12425
▁2000,	-12426
▁Bulls	-12427
▁Jacob	-12428
▁Seven	-12429
▁Tommy	-12430
▁Truth	-12431
▁comed	-12432
▁males	-12433
▁rebel	-12434
▁recur	-12435
▁rehab	-12436
▁scary	-12437
▁slide	-12438
▁swift	-12439
▁wings	-12440
ascript	-12441
closure	-12442
limited	-12443
▁Colomb	-12444
▁Member	-12445
▁Studio	-12446
▁Temple	-12447
▁clinic	-12448
▁divers	-12449
▁expose	-12450
▁oldest	-12451
▁ritual	-12452
▁spends	-12453
▁unders	-12454
▁Gallery	-12455
▁Working	-12456
▁declare	-12457
▁doubled	-12458
▁elderly	-12459
▁leagues	-12460
▁praised	-12461
▁pricing	-12462
▁striker	-12463
▁summary	-12464
▁Benjamin	-12465
▁Imperial	-12466
▁Original	-12467
▁animated	-12468
▁judicial	-12469
▁lighting	-12470
▁operator	-12471
▁wildlife	-12472
ologically	-12473
▁Brazilian	-12474
▁addiction	-12475
▁particles	-12476
▁afterwards	-12477
▁greenhouse	-12478
▁incentives	-12479
▁indicating	-12480
▁passionate	-12481
▁psychology	-12482
▁separation	-12483
▁coordinator	-12484
▁ideological	-12485
▁temporarily	-12486
▁conservation	-12487
▁establishing	-12488
▁historically	-12489
▁sophisticated	-12490
NP	-12491
uv	-12492
′′	-12493
.25	-12494
700	-12495
Col	-12496
DAY	-12497
See	-12498
afi	-12499
fly	-12500
hal	-12501
hat	-12502
irs	-12503
▁6-	-12504
▁78	-12505
▁CM	-12506
▁DE	-12507
▁LG	-12508
▁MM	-12509
▁Si	-12510
apor	-12511
aret	-12512
cost	-12513
enna	-12514
fish	-12515
iasm	-12516
rone	-12517
rons	-12518
thal	-12519
▁AMD	-12520
▁Amy	-12521
▁BMW	-12522
▁Cut	-12523
▁Fan	-12524
▁Fel	-12525
▁Few	-12526
▁GPU	-12527
▁Hud	-12528
▁NDP	-12529
▁Row	-12530
▁Tun	-12531
▁esp	-12532
▁hes	-12533
ected	-12534
inite	-12535
never	-12536
store	-12537
▁1000	-12538
▁1994	-12539
▁Half	-12540
▁Huff	-12541
▁Kirk	-12542
▁Lamb	-12543
▁Lock	-12544
▁Mort	-12545
▁Phys	-12546
▁Poly	-12547
▁Zero	-12548
▁lone	-12549
▁prox	-12550
▁raid	-12551
▁recy	-12552
▁rede	-12553
▁sake	-12554
▁worn	-12555
INGTON	-12556
inging	-12557
source	-12558
ussion	-12559
usting	-12560
▁2,000	-12561
▁Billy	-12562
▁Charg	-12563
▁Close	-12564
▁Colon	-12565
▁Czech	-12566
▁Danny	-12567
▁Flynn	-12568
▁Quinn	-12569
▁Sudan	-12570
▁bless	-12571
▁dimin	-12572
▁fiber	-12573
▁frank	-12574
▁gifts	-12575
▁prest	-12576
▁safer	-12577
▁sweat	-12578
▁teeth	-12579
attered	-12580
olphins	-12581
ordable	-12582
respons	-12583
ressing	-12584
ryption	-12585
▁Eagles	-12586
▁Polish	-12587
▁Result	-12588
▁absent	-12589
▁crowds	-12590
▁firmly	-12591
▁lately	-12592
▁leaked	-12593
▁orange	-12594
▁plaint	-12595
▁rental	-12596
▁resume	-12597
▁sooner	-12598
▁tenure	-12599
▁whites	-12600
▁wooden	-12601
entation	-12602
friendly	-12603
▁Finance	-12604
▁Mission	-12605
▁Section	-12606
▁Theatre	-12607
▁Updated	-12608
▁amongst	-12609
▁approve	-12610
▁bizarre	-12611
▁drafted	-12612
▁emotion	-12613
▁escaped	-12614
▁highway	-12615
▁mixture	-12616
▁motorcy	-12617
▁quietly	-12618
▁slavery	-12619
▁whistle	-12620
▁Christie	-12621
▁Islamist	-12622
▁Whatever	-12623
▁advisers	-12624
▁contacts	-12625
▁embedded	-12626
▁freshman	-12627
▁imperial	-12628
▁lobbying	-12629
▁monsters	-12630
▁reminder	-12631
▁shocking	-12632
▁speeches	-12633
▁swimming	-12634
▁celebrity	-12635
▁exchanges	-12636
▁magnitude	-12637
▁portfolio	-12638
▁spreading	-12639
▁succeeded	-12640
▁attendance	-12641
▁deployment	-12642
▁indication	-12643
▁remembered	-12644
▁acquisition	-12645
▁disappeared	-12646
▁Christianity	-12647
▁civilization	-12648
▁counterparts	-12649
▁subscription	-12650
▁ADVERTISEMENT	-12651
▁institutional	-12652
▁Communications	-12653
▁identification	-12654
FA	-12655
VP	-12656
400	-12657
ALL	-12658
IST	-12659
IVE	-12660
MAN	-12661
ULL	-12662
chi	-12663
ews	-12664
las	-12665
opt	-12666
ori	-12667
ulk	-12668
▁Aw	-12669
▁Fu	-12670
▁Ju	-12671
dale	-12672
five	-12673
ivic	-12674
ocus	-12675
rawl	-12676
▁$1,	-12677
▁$30	-12678
▁120	-12679
▁15.	-12680
▁186	-12681
▁Ald	-12682
▁Arn	-12683
▁Gay	-12684
▁Gur	-12685
▁HTT	-12686
▁IRS	-12687
▁awa	-12688
▁lun	-12689
▁tar	-12690
After	-12691
actor	-12692
arthy	-12693
ierra	-12694
ioned	-12695
oning	-12696
ourge	-12697
▁1991	-12698
▁Bott	-12699
▁Bund	-12700
▁Gonz	-12701
▁Heat	-12702
▁Late	-12703
▁Rest	-12704
▁Rice	-12705
▁Till	-12706
▁Ward	-12707
▁lazy	-12708
▁nost	-12709
▁toll	-12710
▁toug	-12711
▁wrap	-12712
▁Arena	-12713
▁Chand	-12714
▁Coach	-12715
▁Crown	-12716
▁Eddie	-12717
▁Learn	-12718
▁Occup	-12719
▁Rosen	-12720
▁Spurs	-12721
▁Titan	-12722
▁Trail	-12723
▁Weiss	-12724
▁crops	-12725
▁crown	-12726
▁query	-12727
▁sells	-12728
▁tribe	-12729
▁vague	-12730
▁wreck	-12731
▁Arabic	-12732
▁Comics	-12733
▁Confed	-12734
▁Corbyn	-12735
▁Living	-12736
▁Making	-12737
▁Ronald	-12738
▁Tigers	-12739
▁admits	-12740
▁denial	-12741
▁drinks	-12742
▁hatred	-12743
▁infant	-12744
▁insure	-12745
▁locker	-12746
▁newest	-12747
▁pedest	-12748
▁retain	-12749
▁rhythm	-12750
▁submar	-12751
▁tribes	-12752
▁Germans	-12753
▁Goldman	-12754
▁Neither	-12755
▁Univers	-12756
▁bearing	-12757
▁cartoon	-12758
▁convinc	-12759
▁cooking	-12760
▁counted	-12761
▁damages	-12762
▁faculty	-12763
▁generic	-12764
▁hostile	-12765
▁magical	-12766
▁planets	-12767
▁regards	-12768
▁spectac	-12769
▁tablets	-12770
▁worship	-12771
▁Advanced	-12772
▁Brussels	-12773
▁Consider	-12774
▁Seahawks	-12775
▁calendar	-12776
▁compiled	-12777
▁creature	-12778
▁deciding	-12779
▁floating	-12780
▁interrog	-12781
▁licenses	-12782
▁mentally	-12783
▁switched	-12784
▁violated	-12785
▁warnings	-12786
▁Breitbart	-12787
▁Pakistani	-12788
▁shootings	-12789
stitutional	-12790
▁Apparently	-12791
▁Eventually	-12792
▁autonomous	-12793
▁beneficial	-12794
▁capability	-12795
▁creativity	-12796
▁prohibited	-12797
▁spacecraft	-12798
▁specialist	-12799
▁achievement	-12800
▁appointment	-12801
▁corporation	-12802
▁fascinating	-12803
▁instruments	-12804
▁obligations	-12805
▁technically	-12806
▁photographer	-12807
FF	-12808
fi	-12809
oa	-12810
-14	-12811
ART	-12812
Int	-12813
SON	-12814
dad	-12815
irk	-12816
olo	-12817
osi	-12818
pin	-12819
ppo	-12820
▁2-	-12821
▁EP	-12822
▁SM	-12823
▁Ye	-12824
...”	-12825
Russ	-12826
erie	-12827
esis	-12828
gans	-12829
llor	-12830
oons	-12831
size	-12832
ugby	-12833
umar	-12834
▁COM	-12835
▁Erd	-12836
▁Nok	-12837
▁Own	-12838
▁Pur	-12839
▁URL	-12840
▁luc	-12841
▁pig	-12842
▁pow	-12843
▁sod	-12844
frame	-12845
overs	-12846
uming	-12847
▁1992	-12848
▁Auto	-12849
▁Cass	-12850
▁Corp	-12851
▁Hoff	-12852
▁Init	-12853
▁Pred	-12854
▁Rain	-12855
▁Sent	-12856
▁Virt	-12857
▁abol	-12858
▁aest	-12859
▁beta	-12860
▁bugs	-12861
▁caps	-12862
▁cauc	-12863
▁fest	-12864
▁lake	-12865
▁lung	-12866
▁mant	-12867
backed	-12868
ladesh	-12869
ockets	-12870
orical	-12871
people	-12872
public	-12873
runner	-12874
ugging	-12875
▁Agree	-12876
▁Bills	-12877
▁Qaeda	-12878
▁aging	-12879
▁ambul	-12880
▁cents	-12881
▁coins	-12882
▁decks	-12883
▁euros	-12884
▁hated	-12885
▁naked	-12886
▁rifle	-12887
▁tooth	-12888
▁witch	-12889
ulative	-12890
▁Carson	-12891
▁cheese	-12892
▁clever	-12893
▁empire	-12894
▁grants	-12895
▁incomp	-12896
▁oxygen	-12897
▁preval	-12898
▁purely	-12899
▁shapes	-12900
ilateral	-12901
iliation	-12902
▁Bennett	-12903
▁Broncos	-12904
▁Iceland	-12905
▁Reading	-12906
▁awkward	-12907
▁casting	-12908
▁crossed	-12909
▁enables	-12910
▁enforce	-12911
▁essence	-12912
▁gravity	-12913
▁lengthy	-12914
▁secrets	-12915
▁suppose	-12916
▁Berkeley	-12917
▁Champion	-12918
▁Columbus	-12919
▁Homeland	-12920
▁Jennifer	-12921
▁Sciences	-12922
▁Software	-12923
▁republic	-12924
▁sacrific	-12925
▁sexually	-12926
▁template	-12927
▁tourists	-12928
▁Cambridge	-12929
▁Melbourne	-12930
▁Palestine	-12931
▁Relations	-12932
▁achieving	-12933
▁cancelled	-12934
▁chocolate	-12935
▁commented	-12936
▁countless	-12937
▁qualified	-12938
▁qualities	-12939
▁satisfied	-12940
▁consultant	-12941
▁medication	-12942
▁regulators	-12943
▁structural	-12944
▁transcript	-12945
▁Researchers	-12946
▁composition	-12947
▁departments	-12948
▁flexibility	-12949
▁fundraising	-12950
▁respondents	-12951
▁unacceptable	-12952
▁inappropriate	-12953
▁accountability	-12954
▁straightforward	-12955
SD	-12956
.[8	-12957
aux	-12958
enz	-12959
fox	-12960
imb	-12961
obb	-12962
rer	-12963
▁62	-12964
▁BY	-12965
▁Ny	-12966
bank	-12967
kers	-12968
orer	-12969
ovic	-12970
tics	-12971
vals	-12972
wear	-12973
émon	-12974
▁3.0	-12975
▁CSS	-12976
▁Git	-12977
▁Joh	-12978
▁MPs	-12979
▁Nad	-12980
▁REL	-12981
▁Rio	-12982
▁ber	-12983
UTERS	-12984
bsite	-12985
ernel	-12986
somet	-12987
▁Beng	-12988
▁Cant	-12989
▁Chap	-12990
▁Fame	-12991
▁Fast	-12992
▁Prin	-12993
▁Snap	-12994
▁Stra	-12995
▁User	-12996
▁corn	-12997
▁glob	-12998
▁horm	-12999
▁rice	-13000
▁seiz	-13001
▁visa	-13002
Israel	-13003
agging	-13004
formed	-13005
hammad	-13006
iments	-13007
isting	-13008
mented	-13009
▁2007.	-13010
▁Costa	-13011
▁Cuban	-13012
▁Marco	-13013
▁Maria	-13014
▁McCon	-13015
▁Oscar	-13016
▁Prize	-13017
▁Steam	-13018
▁Veter	-13019
▁Woman	-13020
▁bears	-13021
▁fancy	-13022
▁fence	-13023
▁flaws	-13024
▁jokes	-13025
▁nodes	-13026
▁reson	-13027
▁seeds	-13028
▁smugg	-13029
▁spare	-13030
▁venue	-13031
agonist	-13032
ullivan	-13033
▁Native	-13034
▁Reagan	-13035
▁Terror	-13036
▁aboard	-13037
▁albums	-13038
▁buyers	-13039
▁dispro	-13040
▁enroll	-13041
▁hearts	-13042
▁horses	-13043
▁insane	-13044
▁shifts	-13045
▁trades	-13046
▁Defence	-13047
▁Islands	-13048
▁Kurdish	-13049
▁Vermont	-13050
▁Wallace	-13051
▁consume	-13052
▁donated	-13053
▁filming	-13054
▁kingdom	-13055
▁murders	-13056
▁origins	-13057
▁painted	-13058
▁pursuit	-13059
▁Muhammad	-13060
▁catching	-13061
▁duration	-13062
▁horizont	-13063
▁memorial	-13064
▁sporting	-13065
▁Jefferson	-13066
▁affiliate	-13067
▁champions	-13068
▁comparing	-13069
▁daughters	-13070
▁exploring	-13071
▁purchases	-13072
▁successor	-13073
▁supporter	-13074
▁victories	-13075
▁Federation	-13076
▁Photograph	-13077
▁compassion	-13078
▁enthusiasm	-13079
▁indigenous	-13080
▁laboratory	-13081
▁motivation	-13082
▁accountable	-13083
▁smartphones	-13084
▁difficulties	-13085
▁humanitarian	-13086
▁implementing	-13087
SC	-13088
mi	-13089
во	-13090
.3%	-13091
Hub	-13092
aku	-13093
dec	-13094
dev	-13095
fil	-13096
iaz	-13097
lly	-13098
pad	-13099
una	-13100
var	-13101
▁-0	-13102
▁69	-13103
▁NA	-13104
Comp	-13105
asha	-13106
boys	-13107
date	-13108
illo	-13109
iors	-13110
lies	-13111
ptic	-13112
rose	-13113
talk	-13114
than	-13115
▁24-	-13116
▁Kit	-13117
▁MIT	-13118
▁NPR	-13119
▁Oil	-13120
▁PAC	-13121
▁Roc	-13122
▁bay	-13123
▁cra	-13124
▁lyr	-13125
▁nob	-13126
▁nur	-13127
▁por	-13128
▁vit	-13129
adows	-13130
comed	-13131
ector	-13132
etics	-13133
ipher	-13134
opard	-13135
rowth	-13136
▁Anim	-13137
▁Cond	-13138
▁Dear	-13139
▁Edge	-13140
▁Hait	-13141
▁Sach	-13142
▁Tory	-13143
▁Trav	-13144
▁Zion	-13145
▁gaps	-13146
▁nest	-13147
▁pink	-13148
▁quad	-13149
▁recl	-13150
▁scra	-13151
Mobile	-13152
acious	-13153
aments	-13154
iscrim	-13155
urable	-13156
▁2018,	-13157
▁Chall	-13158
▁Glenn	-13159
▁Quick	-13160
▁Susan	-13161
▁Tyler	-13162
▁Voice	-13163
▁anime	-13164
▁armor	-13165
▁balls	-13166
▁burst	-13167
▁chase	-13168
▁disad	-13169
▁hence	-13170
▁reply	-13171
▁stark	-13172
▁stiff	-13173
▁ultra	-13174
▁viral	-13175
borough	-13176
ortions	-13177
quality	-13178
selling	-13179
verning	-13180
▁Almost	-13181
▁Around	-13182
▁Bishop	-13183
▁Double	-13184
▁Joined	-13185
▁Peters	-13186
▁Unless	-13187
▁Wonder	-13188
▁binary	-13189
▁divine	-13190
▁doubts	-13191
▁dubbed	-13192
▁expend	-13193
▁insect	-13194
▁median	-13195
▁mutual	-13196
▁parade	-13197
▁pilots	-13198
▁urgent	-13199
▁worlds	-13200
function	-13201
national	-13202
▁Jeffrey	-13203
▁Packers	-13204
▁airline	-13205
▁assured	-13206
▁buttons	-13207
▁closure	-13208
▁compact	-13209
▁condemn	-13210
▁density	-13211
▁exports	-13212
▁observe	-13213
▁pledged	-13214
▁reposit	-13215
▁retreat	-13216
▁rushing	-13217
▁schemes	-13218
▁streams	-13219
▁symbols	-13220
ocumented	-13221
▁Magazine	-13222
▁Orthodox	-13223
▁arranged	-13224
▁barriers	-13225
▁consumed	-13226
▁cultures	-13227
▁invented	-13228
▁liberals	-13229
▁printing	-13230
▁receives	-13231
▁refusing	-13232
▁shifting	-13233
▁shutdown	-13234
▁terminal	-13235
▁traveled	-13236
▁broadband	-13237
▁collapsed	-13238
▁computing	-13239
▁financing	-13240
▁legendary	-13241
▁nominated	-13242
▁societies	-13243
▁volunteer	-13244
▁wrestling	-13245
▁adaptation	-13246
▁bureaucrat	-13247
▁conversion	-13248
▁disability	-13249
▁economists	-13250
▁excitement	-13251
▁desperately	-13252
▁scholarship	-13253
▁understands	-13254
▁arrangements	-13255
▁considerably	-13256
▁vulnerability	-13257
▁administrative	-13258
?!	-13259
RO	-13260
di	-13261
kg	-13262
ст	-13263
();	-13264
-17	-13265
Hey	-13266
ben	-13267
cat	-13268
eta	-13269
gel	-13270
jar	-13271
nie	-13272
▁()	-13273
▁83	-13274
▁=>	-13275
▁BP	-13276
▁CI	-13277
▁Ow	-13278
alog	-13279
fold	-13280
itty	-13281
kees	-13282
rane	-13283
sign	-13284
stan	-13285
wart	-13286
▁18-	-13287
▁20%	-13288
▁700	-13289
▁Alf	-13290
▁Alt	-13291
▁Kam	-13292
▁LED	-13293
▁cab	-13294
▁sab	-13295
▁tub	-13296
▁une	-13297
ATION	-13298
Tunes	-13299
heric	-13300
icked	-13301
ietal	-13302
itzer	-13303
mines	-13304
nesty	-13305
ocaly	-13306
▁Carm	-13307
▁HERE	-13308
▁Kath	-13309
▁Kind	-13310
▁READ	-13311
▁Roth	-13312
▁Shar	-13313
▁bone	-13314
▁cats	-13315
▁dash	-13316
▁dign	-13317
▁dirt	-13318
▁dive	-13319
▁intu	-13320
▁neat	-13321
▁nort	-13322
▁pale	-13323
▁rows	-13324
▁trop	-13325
▁urge	-13326
agraph	-13327
econom	-13328
erness	-13329
oubted	-13330
script	-13331
string	-13332
▁2005,	-13333
▁3,000	-13334
▁Allah	-13335
▁Cohen	-13336
▁Notes	-13337
▁Title	-13338
▁aired	-13339
▁align	-13340
▁cache	-13341
▁glory	-13342
▁meals	-13343
▁popul	-13344
▁posed	-13345
▁prost	-13346
▁realm	-13347
▁revol	-13348
▁rises	-13349
▁silly	-13350
▁suits	-13351
▁thumb	-13352
▁woods	-13353
▁zones	-13354
keeping	-13355
mediate	-13356
prising	-13357
▁Chance	-13358
▁Rachel	-13359
▁anchor	-13360
▁bitter	-13361
▁boxing	-13362
▁charts	-13363
▁evolve	-13364
▁filmed	-13365
▁poorly	-13366
essional	-13367
ictional	-13368
▁Account	-13369
▁Chamber	-13370
▁Holland	-13371
▁Introdu	-13372
▁arrives	-13373
▁cricket	-13374
▁innings	-13375
▁pitcher	-13376
▁$100,000	-13377
▁Computer	-13378
▁Egyptian	-13379
▁Franklin	-13380
▁Harrison	-13381
▁Peterson	-13382
▁athletic	-13383
▁commands	-13384
▁disputed	-13385
▁enabling	-13386
▁expenses	-13387
▁grateful	-13388
▁killings	-13389
▁overhaul	-13390
▁teammate	-13391
▁Resources	-13392
▁affecting	-13393
▁conflicts	-13394
▁constrain	-13395
▁continent	-13396
▁decreased	-13397
▁operators	-13398
▁processor	-13399
▁reasoning	-13400
▁sentiment	-13401
▁strongest	-13402
▁boundaries	-13403
▁nationally	-13404
▁provincial	-13405
▁touchdowns	-13406
▁arrangement	-13407
▁competitors	-13408
▁examination	-13409
▁practically	-13410
▁sovereignty	-13411
▁characterized	-13412
▁entrepreneurs	-13413
▁parliamentary	-13414
▁substantially	-13415
49	-13416
En	-13417
Mr	-13418
Sc	-13419
ds	-13420
km	-13421
cup	-13422
php	-13423
pic	-13424
▁87	-13425
▁AF	-13426
▁IV	-13427
▁oh	-13428
.[4]	-13429
Even	-13430
List	-13431
abil	-13432
airy	-13433
bage	-13434
elle	-13435
full	-13436
iper	-13437
mons	-13438
ophy	-13439
path	-13440
prot	-13441
wall	-13442
▁Dom	-13443
▁Hig	-13444
▁Hum	-13445
▁McL	-13446
▁Mes	-13447
▁Pad	-13448
▁Pin	-13449
▁Sau	-13450
▁WWE	-13451
▁lap	-13452
▁ski	-13453
▁unh	-13454
Image	-13455
cules	-13456
ensen	-13457
ucker	-13458
▁1993	-13459
▁Born	-13460
▁Horn	-13461
▁Hunt	-13462
▁Lost	-13463
▁Pete	-13464
▁Reed	-13465
▁Spot	-13466
▁Unit	-13467
▁Wing	-13468
▁dumb	-13469
▁gray	-13470
▁hike	-13471
▁mild	-13472
▁proc	-13473
▁seal	-13474
▁slip	-13475
▁tube	-13476
▁twin	-13477
▁wolf	-13478
atican	-13479
boards	-13480
ctrine	-13481
isible	-13482
itably	-13483
izable	-13484
▁Autom	-13485
▁Glass	-13486
▁Lucas	-13487
▁Puert	-13488
▁Serge	-13489
▁Stein	-13490
▁Tibet	-13491
▁Works	-13492
▁Yahoo	-13493
▁Youth	-13494
▁medal	-13495
▁paths	-13496
▁relie	-13497
▁scrap	-13498
▁steep	-13499
▁vowed	-13500
▁winds	-13501
natural	-13502
version	-13503
▁Arthur	-13504
▁Garcia	-13505
▁Geneva	-13506
▁Reform	-13507
▁Shadow	-13508
▁clouds	-13509
▁disreg	-13510
▁divide	-13511
▁frozen	-13512
▁insert	-13513
▁relent	-13514
▁retrie	-13515
▁serial	-13516
▁statue	-13517
▁strain	-13518
▁stroke	-13519
▁suprem	-13520
▁tragic	-13521
▁united	-13522
▁waited	-13523
specific	-13524
▁Calgary	-13525
▁Griffin	-13526
▁Pokémon	-13527
▁REUTERS	-13528
▁Spencer	-13529
▁Studios	-13530
▁Vatican	-13531
▁Vikings	-13532
▁belongs	-13533
▁bottles	-13534
▁empower	-13535
▁fitting	-13536
▁flowing	-13537
▁funeral	-13538
▁habitat	-13539
▁infring	-13540
▁irrelev	-13541
▁shipped	-13542
▁spirits	-13543
▁triumph	-13544
▁wrapped	-13545
ASHINGTON	-13546
ationally	-13547
ufficient	-13548
▁Election	-13549
▁Ethereum	-13550
▁McCarthy	-13551
▁McDonald	-13552
▁enhanced	-13553
▁equipped	-13554
▁incoming	-13555
▁insights	-13556
▁reminded	-13557
▁searches	-13558
▁sponsors	-13559
▁tensions	-13560
▁undermin	-13561
▁velocity	-13562
▁Coalition	-13563
▁Currently	-13564
▁Halloween	-13565
▁Hopefully	-13566
▁Indonesia	-13567
▁aftermath	-13568
▁behaviors	-13569
▁classical	-13570
▁designers	-13571
▁economies	-13572
▁governing	-13573
▁inclusion	-13574
▁portrayed	-13575
▁suspicion	-13576
▁facilitate	-13577
▁linebacker	-13578
▁navigation	-13579
▁presidents	-13580
▁interactive	-13581
▁operational	-13582
▁predictions	-13583
▁alternatives	-13584
▁incorporated	-13585
▁manipulation	-13586
/7	-13587
sk	-13588
uh	-13589
▁μ	-13590
-18	-13591
.75	-13592
14]	-13593
19]	-13594
abe	-13595
ahl	-13596
fin	-13597
gro	-13598
hew	-13599
nik	-13600
oos	-13601
pts	-13602
uum	-13603
whe	-13604
▁3)	-13605
▁97	-13606
▁==	-13607
▁HP	-13608
IGHT	-13609
ango	-13610
hner	-13611
iots	-13612
oust	-13613
requ	-13614
seen	-13615
stra	-13616
team	-13617
tech	-13618
▁1.2	-13619
▁1.4	-13620
▁160	-13621
▁185	-13622
▁Cou	-13623
▁Doc	-13624
▁Esp	-13625
▁Got	-13626
▁Haz	-13627
▁Joy	-13628
▁MLB	-13629
▁Pun	-13630
▁Rah	-13631
▁Too	-13632
▁Wiz	-13633
▁cum	-13634
▁ist	-13635
▁von	-13636
irmed	-13637
pling	-13638
ublin	-13639
uffed	-13640
▁1940	-13641
▁Cape	-13642
▁Corn	-13643
▁Elsa	-13644
▁Exam	-13645
▁Fear	-13646
▁Gear	-13647
▁Marl	-13648
▁Maur	-13649
▁Meet	-13650
▁Murd	-13651
▁Pere	-13652
▁Race	-13653
▁Soon	-13654
▁Task	-13655
▁Thor	-13656
▁Walt	-13657
▁bite	-13658
▁cher	-13659
▁earl	-13660
▁ears	-13661
▁furn	-13662
▁shar	-13663
abetes	-13664
illery	-13665
opular	-13666
thirds	-13667
ulator	-13668
▁2001,	-13669
▁Banks	-13670
▁Bears	-13671
▁Carib	-13672
▁Catal	-13673
▁Eight	-13674
▁Hotel	-13675
▁Nokia	-13676
▁Study	-13677
▁brave	-13678
▁firef	-13679
▁monop	-13680
▁rings	-13681
▁sheer	-13682
▁toile	-13683
initely	-13684
istence	-13685
minster	-13686
ndering	-13687
▁Create	-13688
▁Hudson	-13689
▁Screen	-13690
▁Select	-13691
▁Survey	-13692
▁convey	-13693
▁crying	-13694
▁edited	-13695
▁elites	-13696
▁gamers	-13697
▁overth	-13698
▁sacred	-13699
▁sketch	-13700
▁streak	-13701
▁temple	-13702
▁wallet	-13703
lication	-13704
▁Assange	-13705
▁Brandon	-13706
▁Collect	-13707
▁Episode	-13708
▁Rodgers	-13709
▁Systems	-13710
▁binding	-13711
▁clarity	-13712
▁creator	-13713
▁denying	-13714
▁firearm	-13715
▁knocked	-13716
▁mounted	-13717
▁peoples	-13718
▁permits	-13719
▁satisfy	-13720
▁sensors	-13721
▁smiling	-13722
▁tribute	-13723
▁trusted	-13724
arenthood	-13725
▁Commerce	-13726
▁Matthews	-13727
▁Michelle	-13728
▁analyses	-13729
▁avoiding	-13730
▁colleges	-13731
▁colonial	-13732
▁conclude	-13733
▁detected	-13734
▁epidemic	-13735
▁evaluate	-13736
▁password	-13737
▁regulate	-13738
▁taxpayer	-13739
▁Argentina	-13740
▁Assistant	-13741
▁Henderson	-13742
▁arbitrary	-13743
▁classroom	-13744
▁isolation	-13745
▁malicious	-13746
▁mortality	-13747
▁negotiate	-13748
▁obstacles	-13749
▁oversight	-13750
▁survivors	-13751
information	-13752
▁Additional	-13753
▁accurately	-13754
▁algorithms	-13755
▁casualties	-13756
▁connecting	-13757
▁disturbing	-13758
▁generating	-13759
▁indictment	-13760
▁oppression	-13761
▁prevention	-13762
▁qualifying	-13763
▁reflecting	-13764
▁thoroughly	-13765
▁traditions	-13766
▁Fortunately	-13767
▁accommodate	-13768
▁approaching	-13769
▁assumptions	-13770
▁legislature	-13771
▁fundamentally	-13772
▁independently	-13773
Id	-13774
NT	-13775
":"	-13776
.50	-13777
AFP	-13778
Bec	-13779
Rec	-13780
pse	-13781
tha	-13782
▁);	-13783
▁1-	-13784
▁67	-13785
▁73	-13786
▁77	-13787
▁98	-13788
▁BA	-13789
▁NV	-13790
▁“[	-13791
Book	-13792
Look	-13793
Time	-13794
also	-13795
anti	-13796
club	-13797
four	-13798
half	-13799
onge	-13800
oute	-13801
perm	-13802
sing	-13803
udge	-13804
▁Ess	-13805
▁Hat	-13806
▁Ide	-13807
▁Jed	-13808
▁Kas	-13809
▁Nar	-13810
▁Pic	-13811
▁Teh	-13812
▁duo	-13813
black	-13814
marks	-13815
mouth	-13816
ormal	-13817
peror	-13818
proof	-13819
reach	-13820
ulent	-13821
▁Cart	-13822
▁Dian	-13823
▁Doug	-13824
▁File	-13825
▁Host	-13826
▁Mall	-13827
▁Math	-13828
▁Merc	-13829
▁Shel	-13830
▁Upon	-13831
▁disg	-13832
▁grim	-13833
▁inch	-13834
▁meta	-13835
▁opio	-13836
▁tatt	-13837
funded	-13838
giving	-13839
ickets	-13840
master	-13841
museum	-13842
ooting	-13843
pelled	-13844
spring	-13845
terior	-13846
▁2003,	-13847
▁Activ	-13848
▁Bryan	-13849
▁Gates	-13850
▁Incre	-13851
▁Krist	-13852
▁Legal	-13853
▁Nixon	-13854
▁Stars	-13855
▁bones	-13856
▁cargo	-13857
▁chrom	-13858
▁clues	-13859
▁codes	-13860
▁curve	-13861
▁drain	-13862
▁inhib	-13863
▁laser	-13864
▁pizza	-13865
▁ports	-13866
▁pseud	-13867
▁rocks	-13868
▁sever	-13869
▁slave	-13870
▁spite	-13871
▁surre	-13872
erences	-13873
omplete	-13874
onsense	-13875
▁Attack	-13876
▁Carlos	-13877
▁Chrome	-13878
▁Palace	-13879
▁Puerto	-13880
▁Quebec	-13881
▁Server	-13882
▁Spider	-13883
▁Target	-13884
▁affair	-13885
▁aliens	-13886
▁autism	-13887
▁banner	-13888
▁betray	-13889
▁boring	-13890
▁buffer	-13891
▁costly	-13892
▁curric	-13893
▁heated	-13894
▁hungry	-13895
▁iTunes	-13896
▁quotes	-13897
▁sprint	-13898
▁stocks	-13899
▁throws	-13900
oubtedly	-13901
▁Chapter	-13902
▁Denmark	-13903
▁Hundred	-13904
▁Indians	-13905
▁Process	-13906
▁Protest	-13907
▁athlete	-13908
▁chamber	-13909
▁entries	-13910
▁forming	-13911
▁grocery	-13912
▁intends	-13913
▁loyalty	-13914
▁patents	-13915
▁renewed	-13916
▁vendors	-13917
ependence	-13918
▁Dolphins	-13919
▁Interior	-13920
▁Israelis	-13921
▁Liberals	-13922
▁Medicine	-13923
▁Resident	-13924
▁Senators	-13925
▁assuming	-13926
▁calories	-13927
▁damaging	-13928
▁detained	-13929
▁formerly	-13930
▁laughing	-13931
▁lawsuits	-13932
▁limiting	-13933
▁matching	-13934
▁outright	-13935
▁precious	-13936
▁premiere	-13937
▁searched	-13938
▁strictly	-13939
▁tactical	-13940
▁welcomed	-13941
▁McConnell	-13942
▁Rodriguez	-13943
▁Venezuela	-13944
▁artifacts	-13945
▁automated	-13946
▁boyfriend	-13947
▁illegally	-13948
▁nonprofit	-13949
▁superhero	-13950
▁triggered	-13951
▁Bangladesh	-13952
▁Laboratory	-13953
▁Regardless	-13954
▁WASHINGTON	-13955
▁accounting	-13956
▁activation	-13957
▁convenient	-13958
▁convincing	-13959
▁distribute	-13960
▁likelihood	-13961
▁optimistic	-13962
▁supportive	-13963
▁preliminary	-13964
▁prospective	-13965
▁subscribing	-13966
▁territories	-13967
▁willingness	-13968
▁demonstrates	-13969
▁disabilities	-13970
▁Conservatives	-13971
▁Transportation	-13972
▁cryptocurrency	-13973
EE	-13974
GL	-13975
VR	-13976
gs	-13977
.’”	-13978
bra	-13979
ede	-13980
gon	-13981
his	-13982
hum	-13983
rab	-13984
two	-13985
▁$0	-13986
▁02	-13987
▁84	-13988
▁PL	-13989
▁QB	-13990
▁RT	-13991
▁WR	-13992
▁ma	-13993
▁pa	-13994
▁{\	-13995
.[7]	-13996
.[9]	-13997
Post	-13998
amps	-13999
bone	-14000
colm	-14001
ften	-14002
iche	-14003
iked	-14004
lict	-14005
oren	-14006
plex	-14007
tail	-14008
them	-14009
wick	-14010
▁10:	-14011
▁12.	-14012
▁130	-14013
▁911	-14014
▁Aqu	-14015
▁Aub	-14016
▁Bou	-14017
▁DNC	-14018
▁Din	-14019
▁Isa	-14020
▁Kle	-14021
▁Lot	-14022
▁Mul	-14023
▁RAM	-14024
▁Sha	-14025
▁Tob	-14026
▁cub	-14027
▁pub	-14028
▁toy	-14029
PDATE	-14030
World	-14031
every	-14032
icals	-14033
nyder	-14034
uates	-14035
▁Bart	-14036
▁Buzz	-14037
▁Camb	-14038
▁Glas	-14039
▁Grey	-14040
▁Kate	-14041
▁Okay	-14042
▁Raid	-14043
▁Reds	-14044
▁Rush	-14045
▁Site	-14046
▁Wire	-14047
▁dece	-14048
▁dorm	-14049
▁feas	-14050
▁foul	-14051
▁grat	-14052
▁hier	-14053
▁rall	-14054
▁sher	-14055
▁synd	-14056
ailand	-14057
closed	-14058
degree	-14059
estone	-14060
icians	-14061
inates	-14062
rament	-14063
social	-14064
▁Beast	-14065
▁Clean	-14066
▁Filip	-14067
▁Jamie	-14068
▁Jesse	-14069
▁Leave	-14070
▁Minor	-14071
▁candy	-14072
▁dated	-14073
▁demol	-14074
▁donor	-14075
▁grave	-14076
▁maneu	-14077
▁packs	-14078
▁raped	-14079
▁spill	-14080
▁teens	-14081
▁wives	-14082
▁yeast	-14083
develop	-14084
emption	-14085
umbling	-14086
venture	-14087
▁Boeing	-14088
▁Compan	-14089
▁Compet	-14090
▁Finals	-14091
▁Harvey	-14092
▁Marcus	-14093
▁Mormon	-14094
▁Oliver	-14095
▁aggreg	-14096
▁alumin	-14097
▁blacks	-14098
▁brains	-14099
▁caring	-14100
▁chains	-14101
▁corrid	-14102
▁cultiv	-14103
▁dispar	-14104
▁fisher	-14105
▁fruits	-14106
▁intend	-14107
▁lyrics	-14108
▁outfit	-14109
▁priest	-14110
▁sculpt	-14111
▁stabil	-14112
▁tongue	-14113
▁tribal	-14114
▁uncons	-14115
▁valued	-14116
▁varied	-14117
template	-14118
▁Certain	-14119
▁Finland	-14120
▁Invalid	-14121
▁Kremlin	-14122
▁Montana	-14123
▁Reports	-14124
▁Someone	-14125
▁Vincent	-14126
▁Website	-14127
▁Workers	-14128
▁ceiling	-14129
▁crowded	-14130
▁females	-14131
▁hunting	-14132
▁inspire	-14133
▁metrics	-14134
▁premier	-14135
▁recalls	-14136
▁seventh	-14137
▁skilled	-14138
▁sounded	-14139
▁sparked	-14140
▁sponsor	-14141
▁vessels	-14142
▁Creative	-14143
▁Hispanic	-14144
▁Students	-14145
▁adequate	-14146
▁climbing	-14147
▁creators	-14148
▁dynamics	-14149
▁earliest	-14150
▁imagined	-14151
▁investor	-14152
▁leverage	-14153
▁rankings	-14154
▁relating	-14155
▁symbolic	-14156
▁teenager	-14157
▁theaters	-14158
▁vacation	-14159
▁villages	-14160
▁Communist	-14161
▁accompany	-14162
▁regulated	-14163
▁retailers	-14164
▁screaming	-14165
▁undermine	-14166
▁Affordable	-14167
▁eliminated	-14168
▁encounters	-14169
▁minorities	-14170
▁nationwide	-14171
▁organizing	-14172
▁pronounced	-14173
▁solidarity	-14174
▁supplement	-14175
▁vegetables	-14176
▁Brotherhood	-14177
▁consistency	-14178
▁contractors	-14179
▁problematic	-14180
▁settlements	-14181
▁transparent	-14182
▁legalization	-14183
▁manufacturer	-14184
▁intentionally	-14185
▁traditionally	-14186
.“	-14187
?'	-14188
CD	-14189
FS	-14190
GN	-14191
Pl	-14192
SO	-14193
SP	-14194
18]	-14195
ARK	-14196
Map	-14197
din	-14198
iph	-14199
omi	-14200
pur	-14201
ums	-14202
van	-14203
▁&&	-14204
▁86	-14205
▁>>	-14206
▁DR	-14207
▁EM	-14208
▁QU	-14209
▁ft	-14210
▁py	-14211
-199	-14212
blog	-14213
erte	-14214
mile	-14215
oler	-14216
prom	-14217
resa	-14218
rien	-14219
wait	-14220
▁3.5	-14221
▁5.5	-14222
▁Ath	-14223
▁Gas	-14224
▁Gir	-14225
▁Hem	-14226
▁Kin	-14227
▁Mis	-14228
▁Pil	-14229
▁Tar	-14230
▁dil	-14231
▁quo	-14232
aceut	-14233
agged	-14234
aires	-14235
atoes	-14236
idays	-14237
oline	-14238
otive	-14239
ovich	-14240
▁Hook	-14241
▁Liqu	-14242
▁Mine	-14243
▁Shah	-14244
▁Sold	-14245
▁Twin	-14246
▁bust	-14247
▁coat	-14248
▁disk	-14249
▁ende	-14250
▁fond	-14251
▁grip	-14252
▁plea	-14253
▁sink	-14254
Christ	-14255
Muslim	-14256
around	-14257
azines	-14258
driven	-14259
iciary	-14260
riages	-14261
▁Ahmad	-14262
▁Arrow	-14263
▁Break	-14264
▁Casey	-14265
▁Corps	-14266
▁Jared	-14267
▁Nancy	-14268
▁Swift	-14269
▁Touch	-14270
▁aston	-14271
▁batch	-14272
▁buses	-14273
▁divid	-14274
▁dread	-14275
▁gangs	-14276
▁handy	-14277
▁incon	-14278
▁irony	-14279
▁irrit	-14280
▁maker	-14281
▁moder	-14282
▁modes	-14283
▁pills	-14284
▁proxy	-14285
▁texts	-14286
antages	-14287
content	-14288
portant	-14289
working	-14290
▁Dublin	-14291
▁Linked	-14292
▁Nearly	-14293
▁Newton	-14294
▁Norway	-14295
▁Sierra	-14296
▁Tehran	-14297
▁Theory	-14298
▁Ubuntu	-14299
▁abused	-14300
▁flames	-14301
▁fortun	-14302
▁hazard	-14303
▁honour	-14304
▁lasted	-14305
▁relies	-14306
▁sequel	-14307
▁stones	-14308
▁Erdogan	-14309
▁Gabriel	-14310
▁Village	-14311
▁barrels	-14312
▁chronic	-14313
▁circles	-14314
▁conting	-14315
▁dangers	-14316
▁deleted	-14317
▁gallery	-14318
▁handles	-14319
▁healing	-14320
▁lecture	-14321
▁millenn	-14322
▁scratch	-14323
▁shelves	-14324
▁studios	-14325
▁teenage	-14326
▁tourism	-14327
▁useless	-14328
▁volumes	-14329
▁Actually	-14330
▁Politics	-14331
▁Thailand	-14332
▁adjusted	-14333
▁cleaning	-14334
▁compiler	-14335
▁decisive	-14336
▁diabetes	-14337
▁dressing	-14338
▁founding	-14339
▁massacre	-14340
▁murdered	-14341
▁ordering	-14342
▁pitching	-14343
▁pursuing	-14344
▁reversed	-14345
▁shortage	-14346
▁starring	-14347
▁timeline	-14348
▁underway	-14349
▁Caribbean	-14350
▁astronaut	-14351
▁declining	-14352
▁disorders	-14353
▁displaced	-14354
▁historian	-14355
▁licensing	-14356
▁nutrition	-14357
▁sexuality	-14358
▁acceptance	-14359
▁advantages	-14360
▁completing	-14361
▁consulting	-14362
▁dimensions	-14363
▁obligation	-14364
▁businessman	-14365
▁celebrating	-14366
▁endorsement	-14367
▁exceptional	-14368
▁grandmother	-14369
▁nationalist	-14370
▁Presidential	-14371
▁jurisdiction	-14372
▁concentrations	-14373
1:	-14374
56	-14375
EX	-14376
GS	-14377
ML	-14378
bu	-14379
fs	-14380
hm	-14381
si	-14382
tw	-14383
ui	-14384
zo	-14385
ACK	-14386
Men	-14387
OSE	-14388
OST	-14389
REE	-14390
aha	-14391
dig	-14392
ffe	-14393
fig	-14394
iga	-14395
iko	-14396
iva	-14397
lav	-14398
lem	-14399
may	-14400
too	-14401
wer	-14402
▁71	-14403
▁::	-14404
▁Ja	-14405
▁Ko	-14406
▁SA	-14407
▁£1	-14408
Type	-14409
alin	-14410
beit	-14411
data	-14412
ella	-14413
have	-14414
inez	-14415
oner	-14416
▁1.3	-14417
▁11.	-14418
▁13-	-14419
▁23-	-14420
▁900	-14421
▁Ave	-14422
▁Cab	-14423
▁IBM	-14424
▁Inv	-14425
▁Num	-14426
▁POL	-14427
▁Pas	-14428
▁Rab	-14429
▁Wol	-14430
▁dio	-14431
▁jew	-14432
▁nit	-14433
▁piv	-14434
Press	-14435
actic	-14436
ateur	-14437
ctive	-14438
cular	-14439
esity	-14440
guard	-14441
legal	-14442
ocker	-14443
osity	-14444
raham	-14445
rants	-14446
space	-14447
▁7:30	-14448
▁Bald	-14449
▁Batt	-14450
▁Drag	-14451
▁Flag	-14452
▁Gate	-14453
▁Give	-14454
▁Hack	-14455
▁Hezb	-14456
▁Kush	-14457
▁Lane	-14458
▁Room	-14459
▁THIS	-14460
▁Zach	-14461
▁grey	-14462
▁leaf	-14463
▁leap	-14464
▁masc	-14465
▁mast	-14466
▁melt	-14467
▁mush	-14468
▁shoe	-14469
▁skip	-14470
▁smok	-14471
▁spur	-14472
▁veto	-14473
itches	-14474
lation	-14475
letter	-14476
ueller	-14477
▁2006.	-14478
▁Audio	-14479
▁Baker	-14480
▁Barry	-14481
▁Cabin	-14482
▁Colts	-14483
▁Devil	-14484
▁Graph	-14485
▁Squad	-14486
▁Urban	-14487
▁cares	-14488
▁greed	-14489
▁leaks	-14490
▁penet	-14491
▁risky	-14492
▁royal	-14493
▁sanct	-14494
▁sauce	-14495
▁tuned	-14496
▁unity	-14497
atility	-14498
isphere	-14499
ometown	-14500
▁Butler	-14501
▁Castle	-14502
▁Motors	-14503
▁Shield	-14504
▁Walter	-14505
▁Yellow	-14506
▁beside	-14507
▁dispos	-14508
▁farmer	-14509
▁fixing	-14510
▁garage	-14511
▁intact	-14512
▁nostal	-14513
▁precip	-14514
▁themes	-14515
▁toggle	-14516
▁treats	-14517
▁vessel	-14518
although	-14519
▁Alexand	-14520
▁Average	-14521
▁Nuclear	-14522
▁analyze	-14523
▁biology	-14524
▁customs	-14525
▁desires	-14526
▁enacted	-14527
▁extends	-14528
▁farming	-14529
▁glasses	-14530
▁lasting	-14531
▁recipes	-14532
▁recount	-14533
▁shouted	-14534
▁specify	-14535
▁surveys	-14536
▁terrain	-14537
▁varying	-14538
▁villain	-14539
▁warfare	-14540
mentation	-14541
▁Recently	-14542
▁Violence	-14543
▁assessed	-14544
▁bleeding	-14545
▁clicking	-14546
▁consolid	-14547
▁forwards	-14548
▁hearings	-14549
▁horrific	-14550
▁indirect	-14551
▁starters	-14552
▁sticking	-14553
▁stimulus	-14554
▁wondered	-14555
▁assembled	-14556
▁believing	-14557
▁colleague	-14558
▁crackdown	-14559
▁examining	-14560
▁favorites	-14561
▁fictional	-14562
▁paragraph	-14563
▁precision	-14564
▁privately	-14565
▁remembers	-14566
▁specified	-14567
▁statewide	-14568
▁conducting	-14569
▁constitute	-14570
▁contractor	-14571
▁incomplete	-14572
▁treatments	-14573
▁Performance	-14574
▁campaigning	-14575
▁legislators	-14576
▁spectacular	-14577
▁undoubtedly	-14578
▁breakthrough	-14579
▁concentrated	-14580
▁Interestingly	-14581
▁effectiveness	-14582
42	-14583
82	-14584
CL	-14585
HD	-14586
▁_	-14587
ICK	-14588
OME	-14589
Who	-14590
aky	-14591
aru	-14592
gow	-14593
idi	-14594
lib	-14595
lie	-14596
obi	-14597
oni	-14598
sim	-14599
▁81	-14600
▁93	-14601
▁IR	-14602
▁Ot	-14603
▁Ts	-14604
▁UT	-14605
From	-14606
ashi	-14607
ayed	-14608
bird	-14609
cend	-14610
eler	-14611
file	-14612
gian	-14613
inho	-14614
ipse	-14615
lude	-14616
stud	-14617
▁0.7	-14618
▁1.8	-14619
▁19-	-14620
▁Agr	-14621
▁ERA	-14622
▁Fat	-14623
▁Fly	-14624
▁Ing	-14625
▁Lic	-14626
▁Nex	-14627
▁Rut	-14628
▁hem	-14629
▁jaw	-14630
▁meg	-14631
doing	-14632
ibles	-14633
icons	-14634
media	-14635
olved	-14636
osion	-14637
pired	-14638
ridge	-14639
stage	-14640
think	-14641
value	-14642
▁Chen	-14643
▁Cool	-14644
▁Fish	-14645
▁HTTP	-14646
▁Lisa	-14647
▁Nash	-14648
▁Pros	-14649
▁Sett	-14650
▁Shaw	-14651
▁Sout	-14652
▁atop	-14653
▁bicy	-14654
▁clue	-14655
▁gard	-14656
▁inac	-14657
▁padd	-14658
▁prey	-14659
▁toys	-14660
▁vent	-14661
▁ward	-14662
direct	-14663
ective	-14664
ulsion	-14665
urally	-14666
▁Alger	-14667
▁Biden	-14668
▁Chrom	-14669
▁Leafs	-14670
▁Movie	-14671
▁Pract	-14672
▁Qatar	-14673
▁heter	-14674
▁juice	-14675
▁newer	-14676
▁overr	-14677
▁uncle	-14678
▁wrist	-14679
Because	-14680
clusion	-14681
written	-14682
▁Aleppo	-14683
▁Brooks	-14684
▁Johnny	-14685
▁Julian	-14686
▁Luther	-14687
▁Matter	-14688
▁Method	-14689
▁Snyder	-14690
▁advers	-14691
▁cousin	-14692
▁digest	-14693
▁heaven	-14694
▁incons	-14695
▁kernel	-14696
▁locals	-14697
▁loving	-14698
▁masses	-14699
▁rebell	-14700
heastern	-14701
neapolis	-14702
ographer	-14703
usterity	-14704
▁Cowboys	-14705
▁Critics	-14706
▁Machine	-14707
▁Malcolm	-14708
▁Monitor	-14709
▁Strange	-14710
▁Weather	-14711
▁bedroom	-14712
▁cookies	-14713
▁dealers	-14714
▁dissent	-14715
▁divorce	-14716
▁exhibit	-14717
▁faction	-14718
▁imports	-14719
▁jumping	-14720
▁listing	-14721
▁relying	-14722
▁undergo	-14723
▁uranium	-14724
terrorism	-14725
▁Material	-14726
▁Movement	-14727
▁Sullivan	-14728
▁Warriors	-14729
▁analyzed	-14730
▁carriers	-14731
▁critique	-14732
▁darkness	-14733
▁defining	-14734
▁flagship	-14735
▁globally	-14736
▁literary	-14737
▁merchand	-14738
▁monument	-14739
▁outlined	-14740
▁securing	-14741
▁threaten	-14742
▁wherever	-14743
controlled	-14744
especially	-14745
identified	-14746
▁Commander	-14747
▁Officials	-14748
▁breakfast	-14749
▁magazines	-14750
▁musicians	-14751
▁observers	-14752
▁unpopular	-14753
▁unsuccess	-14754
▁Depression	-14755
▁Throughout	-14756
▁accordance	-14757
▁cigarettes	-14758
▁committing	-14759
▁containers	-14760
▁evaluation	-14761
▁governance	-14762
▁hypothesis	-14763
▁kilometers	-14764
▁protective	-14765
▁purchasing	-14766
▁comparisons	-14767
▁foundations	-14768
▁negotiating	-14769
▁probability	-14770
▁statistical	-14771
▁theoretical	-14772
▁transported	-14773
▁exploitation	-14774
▁publications	-14775
▁philosophical	-14776
................	-14777
Sm	-14778
Sp	-14779
–2	-14780
.),	-14781
Any	-14782
ELL	-14783
Per	-14784
Ser	-14785
bul	-14786
fam	-14787
far	-14788
map	-14789
olk	-14790
pop	-14791
psy	-14792
rus	-14793
ski	-14794
sky	-14795
ths	-14796
▁5:	-14797
▁BB	-14798
▁Ib	-14799
▁OP	-14800
▁Oz	-14801
▁PT	-14802
▁SB	-14803
▁Yu	-14804
arez	-14805
erek	-14806
ghai	-14807
kill	-14808
mist	-14809
note	-14810
olan	-14811
othy	-14812
rill	-14813
rise	-14814
unge	-14815
vine	-14816
ylan	-14817
▁$40	-14818
▁25-	-14819
▁Bed	-14820
▁Jin	-14821
▁Nap	-14822
▁Slo	-14823
▁USC	-14824
▁obl	-14825
▁psy	-14826
allow	-14827
chief	-14828
group	-14829
▁0.00	-14830
▁5:30	-14831
▁AIDS	-14832
▁Curt	-14833
▁Dawn	-14834
▁Gran	-14835
▁Hero	-14836
▁Jobs	-14837
▁Juan	-14838
▁Kiev	-14839
▁Kurt	-14840
▁Mend	-14841
▁Mode	-14842
▁Ring	-14843
▁Rule	-14844
▁dupl	-14845
▁oral	-14846
▁soci	-14847
▁verb	-14848
amount	-14849
ancies	-14850
anners	-14851
napped	-14852
ointed	-14853
osaurs	-14854
owners	-14855
retion	-14856
sexual	-14857
▁Added	-14858
▁Analy	-14859
▁Chase	-14860
▁Chuck	-14861
▁Ebola	-14862
▁Lives	-14863
▁Parks	-14864
▁Spect	-14865
▁Woods	-14866
▁amend	-14867
▁boots	-14868
▁farms	-14869
▁landl	-14870
▁lever	-14871
▁plaus	-14872
▁retro	-14873
▁spawn	-14874
▁theor	-14875
▁trace	-14876
▁traum	-14877
▁trump	-14878
display	-14879
induced	-14880
issance	-14881
itative	-14882
rolling	-14883
utenant	-14884
▁Chiefs	-14885
▁Clarke	-14886
▁Duncan	-14887
▁Foster	-14888
▁Nathan	-14889
▁Travis	-14890
▁Visual	-14891
▁accent	-14892
▁bourge	-14893
▁debris	-14894
▁genius	-14895
▁hammer	-14896
▁invite	-14897
▁linear	-14898
▁lovely	-14899
▁naming	-14900
▁ripped	-14901
▁solved	-14902
▁subway	-14903
▁unpred	-14904
▁upside	-14905
iculture	-14906
oriented	-14907
ountered	-14908
▁Boehner	-14909
▁Housing	-14910
▁Knights	-14911
▁Limited	-14912
▁Loading	-14913
▁Madison	-14914
▁Mueller	-14915
▁Prophet	-14916
▁acquire	-14917
▁archive	-14918
▁besides	-14919
▁careers	-14920
▁clashes	-14921
▁evangel	-14922
▁farther	-14923
▁fleeing	-14924
▁hardest	-14925
▁holders	-14926
▁insists	-14927
[...]
